<blk> 0
<sos/eos> 1
<ZH> 2
<EN> 3
<VI> 4
<RU> 5
<JA> 6
<AR> 7
<TH> 8
<ID> 9
<unk> 10
▁ 11
S 12
▁JA 13
< 14
▁> 15
▁的 16
▁THE 17
▁の 18
▁我 19
▁是 20
▁一 21
▁你 22
▁TO 23
▁て 24
' 25
▁に 26
▁В 27
▁了 28
▁là 29
А 30
▁OF 31
AN 32
▁不 33
▁DI 34
I 35
▁ال 36
▁A 37
▁が 38
▁这 39
▁は 40
▁ก็ 41
▁た 42
▁YANG 43
ة 44
▁と 45
И 46
T 47
▁を 48
▁ที่ 49
▁có 50
▁で 51
▁个 52
▁AND 53
▁THAT 54
▁НА 55
▁không 56
NYA 57
▁IN 58
▁И 59
▁นะ 60
KAN 61
▁有 62
▁就 63
▁ไป 64
▁人 65
D 66
RE 67
▁في 68
▁มี 69
▁НЕ 70
▁INI 71
▁です 72
▁của 73
▁ครับ 74
▁ไม่ 75
ING 76
ن 77
Е 78
▁在 79
AND 80
▁们 81
▁С 82
▁ПО 83
▁YOU 84
▁他 85
ي 86
n 87
ت 88
▁เป็น 89
Я 90
ED 91
▁么 92
َ 93
▁来 94
▁し 95
▁ว่า 96
▁من 97
У 98
▁IS 99
▁một 100
▁จะ 101
▁มา 102
A 103
น 104
В 105
▁và 106
▁cái 107
▁ЧТО 108
▁も 109
▁KE 110
ا 111
▁ของ 112
▁ます 113
m 114
ม 115
▁说 116
▁ITU 117
M 118
▁แล้ว 119
ه 120
НО 121
t 122
▁那 123
▁เขา 124
ng 125
▁IT 126
▁大 127
▁ได้ 128
▁DAN 129
▁được 130
▁ใน 131
IN 132
ก 133
い 134
- 135
▁ให้ 136
▁要 137
ية 138
▁tôi 139
▁I 140
ร 141
▁か 142
▁เลย 143
IT 144
ُ 145
▁thì 146
▁các 147
AL 148
م 149
▁好 150
▁上 151
▁م 152
▁người 153
▁เนี่ย 154
▁ЗА 155
▁คน 156
▁FOR 157
▁أن 158
▁な 159
О 160
ات 161
▁到 162
K 163
▁KITA 164
▁WE 165
М 166
ТО 167
▁cho 168
▁đã 169
▁ت 170
▁啊 171
i 172
▁الم 173
▁คือ 174
و 175
ً 176
▁ค่ะ 177
С 178
▁JUGA 179
E 180
▁นะคะ 181
▁những 182
ك 183
▁มัน 184
▁การ 185
▁ね 186
▁У 187
c 188
▁会 189
▁BE 190
บ 191
▁WAS 192
▁ん 193
▁trong 194
ب 195
▁ADA 196
▁都 197
ด 198
▁này 199
ال 200
ِ 201
▁去 202
ف 203
▁能 204
▁也 205
▁mà 206
LY 207
▁و 208
N 209
▁أ 210
▁นี้ 211
▁ЭТО 212
ع 213
▁DARI 214
▁没 215
ها 216
っ 217
▁thể 218
▁以 219
AT 220
▁得 221
DI 222
▁ta 223
▁为 224
SO 225
▁คุณ 226
▁THIS 227
▁子 228
▁可 229
Т 230
Д 231
▁いう 232
ЛИ 233
Ы 234
▁với 235
ง 236
ย 237
Y 238
▁DENGAN 239
▁出 240
▁على 241
КА 242
▁还 243
▁phải 244
▁อยู่ 245
▁แล้วก็ 246
▁ME 247
▁Я 248
▁时 249
▁家 250
a 251
▁HAVE 252
▁กับ 253
ท 254
▁中 255
ل 256
▁sẽ 257
▁UNTUK 258
SE 259
▁กัน 260
▁から 261
ين 262
o 263
▁事 264
▁まし 265
THE 266
▁để 267
▁DUA 268
ล 269
▁ทํา 270
▁ON 271
▁小 272
▁什 273
▁十 274
▁như 275
▁WITH 276
▁กว่า 277
▁hai 278
▁看 279
▁下 280
TA 281
▁TIDAK 282
ER 283
▁เรา 284
ว 285
SI 286
ส 287
▁rất 288
Р 289
▁BER 290
▁ARE 291
u 292
▁天 293
ون 294
Й 295
НА 296
ต 297
▁cũng 298
▁后 299
▁แต่ 300
نا 301
ح 302
▁年 303
▁ない 304
د 305
▁ở 306
▁自 307
LE 308
▁mình 309
س 310
า 311
YA 312
▁chúng 313
G 314
▁PER 315
▁ต้อง 316
▁ي 317
ق 318
▁AS 319
وا 320
OR 321
▁こと 322
▁多 323
▁想 324
▁三 325
К 326
▁YA 327
BUT 328
▁お 329
▁ВЫ 330
▁二 331
▁đến 332
▁ДО 333
▁生 334
▁บอ 335
▁КАК 336
AS 337
▁だ 338
し 339
▁đó 340
る 341
▁nó 342
り 343
▁BISA 344
Х 345
▁ra 346
RA 347
▁ПРО 348
ر 349
▁nhiều 350
▁О 351
▁NOT 352
▁làm 353
▁い 354
R 355
ДА 356
y 357
Л 358
▁ب 359
▁DO 360
U 361
▁里 362
▁МНЕ 363
▁năm 364
ОВ 365
▁点 366
КИ 367
▁さん 368
▁着 369
▁THEY 370
YANG 371
▁học 372
▁hàng 373
Ж 374
▁CAN 375
Ш 376
▁ОТ 377
▁SUDAH 378
▁công 379
▁AKAN 380
▁đi 381
▁ПРИ 382
Ю 383
อ 384
▁ด้วย 385
LI 386
▁anh 387
O 388
nh 389
▁về 390
B 391
ค 392
هم 393
▁nhà 394
▁よ 395
▁地 396
▁国 397
▁道 398
ん 399
TI 400
P 401
ج 402
РА 403
▁إلى 404
ป 405
ン 406
▁ВОТ 407
▁وال 408
▁khi 409
ОМ 410
▁bạn 411
▁心 412
p 413
▁行 414
▁HE 415
LA 416
▁ABOUT 417
▁อะไร 418
▁SAYA 419
ー 420
TE 421
ПО 422
▁lại 423
▁PULUH 424
VE 425
WE 426
▁LIKE 427
▁方 428
НЕ 429
ЛА 430
▁然 431
MA 432
ط 433
▁前 434
TER 435
▁nào 436
▁和 437
ТЬ 438
▁回 439
SA 440
Н 441
▁thế 442
▁ấy 443
▁WHAT 444
KE 445
ス 446
▁SO 447
МИ 448
▁今 449
TH 450
▁知 451
TO 452
КУ 453
TAPI 454
НУ 455
▁vào 456
▁และ 457
ْ 458
く 459
JA 460
RI 461
▁هذا 462
▁日 463
ТЕ 464
▁所 465
▁لل 466
▁SATU 467
▁việc 468
МА 469
▁mươi 470
tôi 471
▁DALAM 472
▁SE 473
AR 474
▁ИЗ 475
▁РАЗ 476
ان 477
▁ฮะ 478
ิ 479
CE 480
▁เรื่อง 481
▁هذه 482
اء 483
▁把 484
▁dụng 485
AH 486
YOU 487
▁เอา 488
▁TER 489
▁最 490
▁当 491
▁さ 492
▁JUST 493
▁بال 494
أ 495
ช 496
L 497
NA 498
▁ALL 499
ES 500
Б 501
▁AT 502
▁老 503
▁いる 504
GA 505
▁นี่ 506
З 507
▁之 508
▁FROM 509
▁trăm 510
Ч 511
IF 512
▁分 513
IL 514
Ь 515
ГО 516
▁YOUR 517
C 518
▁この 519
NAH 520
IS 521
▁五 522
RO 523
▁thành 524
▁起 525
▁ما 526
▁sự 527
▁từ 528
▁ONE 529
▁面 530
▁bị 531
ON 532
▁KNOW 533
▁する 534
US 535
ص 536
▁trên 537
▁gì 538
ら 539
▁أو 540
▁真 541
▁لا 542
▁成 543
▁MY 544
LL 545
れ 546
ITU 547
▁ЕСТЬ 548
▁จาก 549
▁К 550
▁情 551
ЛО 552
th 553
ANG 554
▁con 555
▁ผม 556
НИ 557
▁THERE 558
П 559
▁れ 560
ى 561
▁PEOPLE 562
▁ТАК 563
พ 564
RU 565
▁em 566
ИТЬ 567
▁本 568
LU 569
▁nên 570
▁مع 571
▁động 572
▁đầu 573
▁ATAU 574
ข 575
▁บอก 576
▁ba 577
▁МЫ 578
▁って 579
▁四 580
INI 581
EN 582
▁MENG 583
▁如 584
▁nhất 585
▁ПОД 586
▁用 587
BER 588
▁意 589
ИМ 590
▁ADALAH 591
้า 592
▁そう 593
▁عن 594
Г 595
▁PAK 596
KU 597
▁ยัง 598
ЛЕ 599
HE 600
▁OUT 601
▁手 602
ОЙ 603
▁MEN 604
DU 605
يا 606
▁候 607
▁己 608
▁作 609
KALAU 610
▁trường 611
ЗА 612
▁ถ้า 613
▁cả 614
▁APA 615
▁น้ํา 616
▁СО 617
▁HAD 618
き 619
▁nước 620
DE 621
ّ 622
▁đang 623
ТИ 624
và 625
▁これ 626
ุ 627
▁ل 628
▁者 629
▁rồi 630
CA 631
▁定 632
ờ 633
ル 634
▁INDONESIA 635
UN 636
え 637
MAN 638
НЫЙ 639
▁ความ 640
لا 641
▁الأ 642
ห 643
ASI 644
▁ngày 645
▁hơn 646
ض 647
わ 648
خ 649
PA 650
▁何 651
▁เห็น 652
▁HARUS 653
▁ЕГО 654
KA 655
ST 656
ТА 657
▁tại 658
▁MENJADI 659
▁ТЫ 660
▁v 661
▁HIS 662
F 663
▁打 664
DA 665
ENT 666
▁อีก 667
▁THINK 668
▁DE 669
▁BY 670
TU 671
か 672
W 673
▁l 674
ТЫ 675
ش 676
ОН 677
H 678
▁公 679
▁UP 680
แ 681
▁PADA 682
▁ทาง 683
▁quan 684
▁nam 685
▁ดู 686
▁hiện 687
▁再 688
▁OLEH 689
▁nói 690
▁高 691
▁gia 692
ما 693
ใจ 694
▁chỉ 695
่ 696
▁chính 697
▁Э 698
▁走 699
à 700
▁ํา 701
▁giờ 702
▁ผู้ชม 703
ЛЬ 704
▁แบบ 705
▁WERE 706
▁先 707
▁OR 708
▁ปี 709
▁ORANG 710
▁BELAS 711
▁PRO 712
▁nay 713
▁đây 714
َّ 715
▁百 716
▁๒ 717
СЯ 718
TING 719
▁điều 720
▁อย่าง 721
GI 722
▁số 723
ตัว 724
GU 725
ول 726
▁ВСЁ 727
▁因 728
KITA 729
▁ある 730
ЧЕ 731
AK 732
ЕМ 733
้ 734
ث 735
МО 736
▁や 737
MEN 738
▁ДЛЯ 739
ADA 740
▁WHO 741
НЫЕ 742
ذ 743
▁ОН 744
▁thời 745
▁nhân 746
▁KALAU 747
▁thấy 748
▁WOULD 749
UM 750
ВА 751
▁KEMUDIAN 752
▁ВСЕ 753
▁ตํารวจ 754
Ф 755
NE 756
▁التي 757
ز 758
▁PEN 759
▁全 760
▁còn 761
▁b 762
VI 763
IC 764
КО 765
▁ОЧЕНЬ 766
▁果 767
▁MORE 768
▁biết 769
▁ซึ่ง 770
CK 771
THAT 772
▁ОБ 773
▁MEMANG 774
▁vì 775
ู 776
▁ТАМ 777
▁学 778
▁mới 779
PER 780
▁OUR 781
▁HAS 782
ЕЙ 783
АТЬ 784
▁比 785
▁次 786
HA 787
ME 788
▁บ้าน 789
ВЕР 790
▁thực 791
す 792
▁TIGA 793
▁الت 794
▁PE 795
▁SOME 796
CI 797
▁而 798
ch 799
▁其 800
في 801
ПОКАЖИ 802
▁LEBIH 803
BU 804
▁đ 805
▁định 806
▁THEIR 807
▁việt 808
РЕ 809
ور 810
▁МЕНЯ 811
▁ส 812
ま 813
▁その 814
▁新 815
НОЙ 816
▁cơ 817
▁WILL 818
▁đồng 819
▁เพราะว่า 820
▁cô 821
▁ผู้ 822
PE 823
▁cao 824
▁THEM 825
▁太 826
▁同 827
▁dân 828
▁八 829
▁GITU 830
ET 831
AD 832
ัง 833
▁cần 834
▁ТО 835
▁SEPERTI 836
ạ 837
СТ 838
▁БЫ 839
▁DON 840
▁明 841
▁sinh 842
▁มาก 843
▁يعني 844
▁ăn 845
เ 846
▁bộ 847
КАК 848
BA 849
▁thông 850
▁หนึ่ง 851
▁mười 852
UR 853
▁ЖЕ 854
MI 855
ЛЯ 856
ะ 857
▁KARENA 858
▁ถูก 859
▁แบบนี้ 860
▁月 861
ี 862
▁นาย 863
▁nhưng 864
▁ОДИН 865
▁DIA 866
▁HARI 867
▁TAHUN 868
▁БУДЕТ 869
GO 870
ト 871
▁なっ 872
จ 873
ATION 874
▁RIBU 875
▁هو 876
ВО 877
▁sản 878
ار 879
▁إ 880
WA 881
▁ЧТОБЫ 882
من 883
่า 884
▁SEE 885
▁GET 886
▁六 887
ЕТ 888
▁ถึง 889
▁MEREKA 890
ٍ 891
▁目 892
▁感 893
う 894
▁TIME 895
▁主 896
▁VERY 897
▁แม่ 898
UT 899
▁ใช่ 900
▁PEM 901
▁phát 902
▁GOING 903
▁女 904
み 905
▁الله 906
MU 907
▁พอ 908
▁KA 909
▁正 910
▁viên 911
НЫХ 912
Z 913
ERS 914
▁IF 915
▁น้อง 916
▁市 917
▁hình 918
▁ЗДЕСЬ 919
SAYA 920
▁ตัว 921
▁WHEN 922
▁theo 923
▁KAMI 924
TAN 925
▁qua 926
▁重 927
IA 928
▁trình 929
БА 930
ศ 931
▁REALLY 932
▁MASIH 933
▁พี่ 934
▁BEEN 935
▁รถ 936
▁西 937
▁هناك 938
▁九 939
▁ไหม 940
h 941
ク 942
▁hợp 943
ОГО 944
▁trung 945
กัน 946
▁それ 947
▁ОНИ 948
UNTUK 949
▁ตาม 950
▁tin 951
▁รู้ 952
▁h 953
▁BAHWA 954
▁法 955
tr 956
NI 957
▁จริง 958
وب 959
▁万 960
КЕ 961
▁力 962
▁いい 963
▁七 964
▁๓ 965
TION 966
▁工 967
▁bệnh 968
CH 969
ОК 970
▁ก่อน 971
▁ประ 972
▁quốc 973
ONE 974
▁見 975
NO 976
▁相 977
▁LAGI 978
▁TADI 979
การ 980
リ 981
▁けど 982
СТИ 983
▁よう 984
▁GO 985
MIN 986
▁ใช้ 987
▁LIMA 988
ЕНИЯ 989
▁外 990
▁OTHER 991
▁hay 992
▁БЫЛО 993
▁ПЕРЕ 994
▁ПРОСТО 995
▁ý 996
▁hội 997
▁MEM 998
АЛ 999
▁cùng 1000
ัด 1001
▁BU 1002
LAH 1003
▁giá 1004
▁УЖЕ 1005
▁特 1006
▁đề 1007
ИЗ 1008
▁才 1009
▁HOW 1010
▁ДВА 1011
ID 1012
МЕ 1013
イ 1014
có 1015
ถ 1016
▁tế 1017
CU 1018
ИЛИ 1019
UL 1020
▁ขึ้น 1021
▁อยาก 1022
▁chín 1023
РО 1024
▁身 1025
SH 1026
▁cách 1027
▁كل 1028
▁sao 1029
غ 1030
▁đấy 1031
ЧИ 1032
▁vị 1033
d 1034
▁ท่าน 1035
▁s 1036
ШЕ 1037
▁ส่วน 1038
▁vậy 1039
MENT 1040
▁又 1041
▁muốn 1042
た 1043
▁等 1044
ГА 1045
▁НАС 1046
め 1047
EL 1048
AM 1049
ДИ 1050
ัน 1051
▁khác 1052
▁CO 1053
THEY 1054
▁lý 1055
RY 1056
▁СЛОВО 1057
▁ứng 1058
▁MA 1059
DO 1060
á 1061
▁ДА 1062
▁位 1063
MP 1064
▁THEN 1065
OL 1066
▁นั้น 1067
НОГО 1068
▁被 1069
▁sau 1070
AKAN 1071
MO 1072
▁常 1073
▁理 1074
▁วันนี้ 1075
IK 1076
ВЫ 1077
▁bảo 1078
▁ใคร 1079
▁لم 1080
يد 1081
▁WANT 1082
thì 1083
▁ตอนนี้ 1084
▁机 1085
▁ลูก 1086
▁ТРИ 1087
▁ờ 1088
PI 1089
▁信 1090
▁快 1091
МУ 1092
СА 1093
СТО 1094
LO 1095
▁nghiệp 1096
▁通 1097
▁SAAT 1098
▁あり 1099
▁เพราะ 1100
▁C 1101
▁họ 1102
▁tư 1103
▁nghìn 1104
▁安 1105
▁ขอ 1106
Э 1107
НАЯ 1108
▁ต่อ 1109
▁RIGHT 1110
▁lên 1111
▁SEMBILAN 1112
▁BECAUSE 1113
▁BANYAK 1114
▁てる 1115
์ 1116
ИТ 1117
▁الع 1118
▁放 1119
▁第 1120
▁ЕСЛИ 1121
▁ทั้ง 1122
▁tốt 1123
GE 1124
ИИ 1125
▁THESE 1126
▁khách 1127
▁ดี 1128
▁体 1129
▁phần 1130
▁TWO 1131
▁直 1132
АН 1133
▁INTO 1134
ДЕ 1135
РИ 1136
anh 1137
▁bốn 1138
▁活 1139
▁HER 1140
s 1141
ИН 1142
▁thường 1143
▁bao 1144
▁СЕМЬ 1145
อง 1146
ラ 1147
▁非 1148
▁cảm 1149
ที่ 1150
้น 1151
KEMUDIAN 1152
IAN 1153
عد 1154
▁度 1155
AP 1156
▁độ 1157
ư 1158
ЧА 1159
PU 1160
ДО 1161
ち 1162
▁NO 1163
▁โดย 1164
ở 1165
▁HERE 1166
▁ALSO 1167
ИЕ 1168
▁nhận 1169
▁美 1170
ผ 1171
▁LAIN 1172
▁水 1173
▁vẫn 1174
▁gian 1175
▁CON 1176
ير 1177
▁ป 1178
▁الس 1179
TOR 1180
▁ลง 1181
さ 1182
▁الق 1183
▁เกิด 1184
▁金 1185
▁ПЯТЬ 1186
UNG 1187
TRI 1188
UP 1189
▁НО 1190
▁كان 1191
KI 1192
BE 1193
▁など 1194
ИЯ 1195
▁EMPAT 1196
▁จังหวัด 1197
ABLE 1198
▁r 1199
THIS 1200
▁الذي 1201
て 1202
BANG 1203
▁الح 1204
▁ЕЩЁ 1205
g 1206
IR 1207
▁الج 1208
▁เข้า 1209
▁tâm 1210
e 1211
▁解 1212
け 1213
ЭТО 1214
▁干 1215
OK 1216
عا 1217
CT 1218
АХ 1219
▁เพื่อ 1220
▁SHE 1221
▁WAY 1222
▁ANAK 1223
▁เดี๋ยว 1224
ЖЕ 1225
▁vụ 1226
АМ 1227
▁trước 1228
つ 1229
▁พระ 1230
СИ 1231
SU 1232
▁kinh 1233
ệ 1234
l 1235
▁tám 1236
▁bản 1237
▁quá 1238
▁วัน 1239
▁WHICH 1240
▁像 1241
BI 1242
Ц 1243
▁NOW 1244
▁SAY 1245
ั 1246
▁เจอ 1247
▁じゃ 1248
JU 1249
ITY 1250
ИЙ 1251
APA 1252
▁รับ 1253
МЫ 1254
▁d 1255
▁КОГДА 1256
▁nữa 1257
▁điểm 1258
▁tình 1259
▁đại 1260
▁白 1261
▁đối 1262
▁هي 1263
▁KEPADA 1264
UH 1265
АЯ 1266
▁完 1267
▁rằng 1268
СО 1269
đ 1270
มา 1271
X 1272
ATE 1273
КОВ 1274
▁友 1275
ام 1276
▁性 1277
▁thích 1278
รา 1279
▁thị 1280
BO 1281
▁toàn 1282
TED 1283
▁更 1284
DIA 1285
ست 1286
ติ 1287
▁mọi 1288
▁sống 1289
УЮ 1290
▁少 1291
▁ЧЕТЫРЕ 1292
▁加 1293
KO 1294
▁OVER 1295
▁MASYARAKAT 1296
▁thứ 1297
▁ОНА 1298
b 1299
▁chưa 1300
▁tiếp 1301
▁hành 1302
▁住 1303
▁xuất 1304
▁死 1305
▁ông 1306
ISI 1307
▁US 1308
▁MO 1309
▁SAJA 1310
РУ 1311
ЖД 1312
▁WORK 1313
GRA 1314
▁RATUS 1315
▁JADI 1316
▁接 1317
▁sáu 1318
▁BA 1319
ЕВ 1320
ว่า 1321
▁MELAKUKAN 1322
▁F 1323
اس 1324
▁平 1325
▁EX 1326
▁tiền 1327
▁部 1328
WHAT 1329
▁ไว้ 1330
ЫЙ 1331
▁ยังไง 1332
يب 1333
▁SU 1334
ัก 1335
▁SEBAGAI 1336
▁まで 1337
▁ออก 1338
▁tự 1339
▁時 1340
▁NEED 1341
▁หรือ 1342
▁yêu 1343
▁tháng 1344
▁HAL 1345
ATAN 1346
وي 1347
▁เธอ 1348
▁どう 1349
▁BUT 1350
▁BACK 1351
ซ 1352
ПЕР 1353
▁БЫЛ 1354
▁luôn 1355
ГИ 1356
ดี 1357
▁sĩ 1358
▁BEGITU 1359
▁ВОСЕМЬ 1360
▁dịch 1361
أن 1362
CO 1363
▁الن 1364
دي 1365
ANNYA 1366
▁名 1367
▁الآن 1368
ド 1369
▁phòng 1370
หน้า 1371
ЕНИЕ 1372
▁JAKARTA 1373
FI 1374
▁พื้นที่ 1375
▁triển 1376
▁海 1377
▁ไทย 1378
▁思い 1379
▁lịch 1380
THERE 1381
ฟ 1382
ИЛ 1383
IM 1384
▁RUMAH 1385
▁tác 1386
▁ออกมา 1387
BAN 1388
ПОЖАЛУЙСТА 1389
TEN 1390
▁ที่จะ 1391
▁คํา 1392
▁lớn 1393
▁นํา 1394
▁ถาม 1395
▁HANYA 1396
▁SAID 1397
▁งาน 1398
gi 1399
่ง 1400
▁thức 1401
▁THOSE 1402
ТОР 1403
▁THINGS 1404
▁PEMERINTAH 1405
HU 1406
▁合 1407
▁nghĩ 1408
▁表 1409
▁TERJADI 1410
▁千 1411
ОТ 1412
BAIK 1413
EST 1414
▁ส่ง 1415
▁mua 1416
▁HIM 1417
▁山 1418
▁à 1419
▁NANTI 1420
▁ШЕСТЬ 1421
اد 1422
▁日本 1423
▁khu 1424
หา 1425
▁năng 1426
▁NEW 1427
▁P 1428
▁SAMA 1429
PH 1430
▁COULD 1431
VER 1432
▁x 1433
▁あ 1434
▁phương 1435
▁lượng 1436
مر 1437
▁sử 1438
▁cuộc 1439
▁DILAKUKAN 1440
ีย 1441
BAT 1442
ION 1443
▁叫 1444
ته 1445
▁き 1446
▁giới 1447
PEN 1448
▁ช่วง 1449
▁EVERY 1450
▁หลาย 1451
ЮТ 1452
▁เคย 1453
▁MUNGKIN 1454
▁あっ 1455
▁MAKE 1456
▁trọng 1457
▁НУ 1458
ิน 1459
▁กํา 1460
ษ 1461
يل 1462
▁ลัง 1463
▁内 1464
НИМ 1465
子 1466
▁入 1467
▁tăng 1468
▁ДЕВЯТЬ 1469
ông 1470
▁แต่ว่า 1471
▁du 1472
chúng 1473
▁hóa 1474
▁ВО 1475
▁保 1476
▁จํา 1477
▁姐 1478
ئ 1479
งาน 1480
ؤ 1481
▁FIRST 1482
อก 1483
▁أي 1484
▁bảy 1485
▁ЯЗЫК 1486
TIDAK 1487
ХО 1488
▁กระ 1489
▁ANDA 1490
▁НОЛЬ 1491
BAR 1492
▁เอง 1493
▁— 1494
PAK 1495
▁文 1496
▁hát 1497
วง 1498
▁khó 1499
DARI 1500
▁bà 1501
ANT 1502
AI 1503
▁tập 1504
▁đường 1505
OT 1506
▁ТОЛЬКО 1507
РЫ 1508
▁do 1509
▁数 1510
▁điện 1511
▁chuyện 1512
▁告 1513
▁SANGAT 1514
АМИ 1515
▁将 1516
СУ 1517
▁なる 1518
▁MUCH 1519
شر 1520
▁早 1521
▁thu 1522
▁chủ 1523
ДЕЛ 1524
▁kết 1525
▁tới 1526
グ 1527
▁代 1528
ตา 1529
FOR 1530
▁私 1531
▁РАС 1532
▁xe 1533
▁零 1534
▁PARA 1535
ائ 1536
МЕР 1537
v 1538
▁văn 1539
▁ذلك 1540
ЫЕ 1541
nhà 1542
▁ちょっと 1543
НОВ 1544
▁bằng 1545
▁giáo 1546
▁喜 1547
▁SAMPAI 1548
▁nhau 1549
▁男 1550
را 1551
▁g 1552
▁pháp 1553
FE 1554
▁LOT 1555
ПИ 1556
▁SEKARANG 1557
k 1558
▁giải 1559
▁СЛОВА 1560
▁เด็ก 1561
▁王 1562
▁ค 1563
با 1564
▁なり 1565
▁ف 1566
な 1567
▁ЭТОГО 1568
НЯ 1569
▁GOT 1570
▁交 1571
▁ДАЖЕ 1572
ТУ 1573
ЫХ 1574
kh 1575
مة 1576
▁จุด 1577
TRA 1578
▁МОЖНО 1579
ับ 1580
▁DID 1581
ЩЕ 1582
▁原 1583
COM 1584
ПРАВ 1585
ッ 1586
ДУ 1587
▁たら 1588
▁GOOD 1589
АЕТ 1590
▁件 1591
▁จ 1592
▁cầu 1593
▁もう 1594
▁WHERE 1595
▁อย่างนี้ 1596
▁đều 1597
▁始 1598
นี้ 1599
▁ЭТОМ 1600
▁bình 1601
▁MAS 1602
nhưng 1603
▁SECARA 1604
LAN 1605
▁อันนี้ 1606
ริ 1607
JI 1608
▁BARU 1609
ВЕ 1610
▁lần 1611
وس 1612
▁思 1613
OP 1614
GER 1615
▁hà 1616
HAN 1617
▁MELIHAT 1618
▁受 1619
▁chức 1620
こ 1621
ТЕР 1622
間 1623
▁ANY 1624
▁เหตุการณ์ 1625
ПЕ 1626
▁tạo 1627
▁向 1628
▁THAN 1629
▁อาจจะ 1630
▁trở 1631
▁もの 1632
田 1633
▁ここ 1634
▁الش 1635
▁提 1636
ЯТ 1637
TY 1638
▁พูด 1639
▁SENDIRI 1640
NOW 1641
▁nhiên 1642
▁NEGARA 1643
▁đổi 1644
НОЕ 1645
▁ห 1646
▁vấn 1647
بي 1648
▁ПОТОМУ 1649
ア 1650
بر 1651
V 1652
ธ 1653
SEHINGGA 1654
MB 1655
▁liên 1656
▁tính 1657
▁بين 1658
ПА 1659
▁คิด 1660
ЗНА 1661
▁PRESIDEN 1662
▁chị 1663
▁đúng 1664
▁ข่าว 1665
DER 1666
كم 1667
▁ph 1668
▁つ 1669
تم 1670
▁UN 1671
▁世 1672
HI 1673
▁たい 1674
▁口 1675
НАЙДИ 1676
▁đình 1677
ОД 1678
▁НЕТ 1679
▁ไหน 1680
コ 1681
اب 1682
▁KIND 1683
▁đâu 1684
▁cấp 1685
قة 1686
▁bài 1687
▁truyền 1688
▁บาท 1689
▁กา 1690
▁phẩm 1691
TAK 1692
▁СЕЙЧАС 1693
▁KOTA 1694
các 1695
▁MISALNYA 1696
▁PARTAI 1697
▁trẻ 1698
▁เงิน 1699
▁วิ 1700
▁vừa 1701
▁朋 1702
НЫ 1703
ớ 1704
▁mẹ 1705
▁SOMETHING 1706
trong 1707
DENGAN 1708
TUR 1709
ХОД 1710
آ 1711
دا 1712
▁tìm 1713
▁BAGAIMANA 1714
سم 1715
فا 1716
ジ 1717
▁花 1718
LANG 1719
▁TUJUH 1720
▁КОН 1721
وت 1722
СТА 1723
▁เข้าไป 1724
▁ENAM 1725
▁系 1726
▁ИХ 1727
صل 1728
▁وت 1729
وم 1730
นา 1731
МЕН 1732
OKE 1733
НЫМ 1734
▁phố 1735
ني 1736
J 1737
▁TAKE 1738
EK 1739
▁dự 1740
không 1741
ФИ 1742
▁mặt 1743
▁化 1744
БЫ 1745
AB 1746
سي 1747
ろ 1748
АЛИ 1749
▁物 1750
▁tiếng 1751
▁ませ 1752
▁北 1753
▁quả 1754
ANGAN 1755
▁BELUM 1756
PAN 1757
▁任 1758
▁สํา 1759
▁NGGAK 1760
1 1761
WI 1762
UND 1763
▁UNDANG 1764
▁câu 1765
▁trị 1766
MER 1767
СКИЙ 1768
▁หน่อย 1769
ПУ 1770
دة 1771
▁sạn 1772
เท 1773
▁ต่าง 1774
▁SP 1775
SEN 1776
ЕН 1777
▁ติด 1778
جر 1779
PAS 1780
▁thôi 1781
ือ 1782
▁الإ 1783
▁管 1784
▁tài 1785
▁BEING 1786
▁医 1787
an 1788
▁そして 1789
СЕ 1790
▁giúp 1791
▁SEMUA 1792
HO 1793
AGE 1794
▁ngoài 1795
▁๔ 1796
رة 1797
▁เมื่อ 1798
▁WAKTU 1799
DIS 1800
▁ร้าน 1801
СКОЛЬКО 1802
▁PO 1803
▁ฟัง 1804
▁nội 1805
▁doanh 1806
▁・ 1807
▁ВРЕМЯ 1808
ЧТО 1809
▁ГДЕ 1810
▁期 1811
АВ 1812
FUL 1813
เด 1814
▁อายุ 1815
▁lực 1816
ИХ 1817
ГУ 1818
نت 1819
ظ 1820
يات 1821
▁YEARS 1822
▁WORLD 1823
▁nh 1824
▁พา 1825
▁ТЕБЯ 1826
▁司 1827
▁คะ 1828
PAR 1829
▁DOWN 1830
▁品 1831
ЕТСЯ 1832
LOW 1833
▁thật 1834
หล 1835
▁tiêu 1836
СКОГО 1837
▁反 1838
▁minh 1839
▁quý 1840
▁tổ 1841
▁เกิดขึ้น 1842
▁使 1843
レ 1844
มือ 1845
ОБ 1846
▁ACTUALLY 1847
ЕЗ 1848
وال 1849
▁DELAPAN 1850
▁TERSEBUT 1851
▁WARGA 1852
▁LOOK 1853
ТРА 1854
ٌ 1855
▁chất 1856
OH 1857
อบ 1858
▁quy 1859
▁BEBERAPA 1860
▁بعد 1861
NG 1862
▁hết 1863
▁THROUGH 1864
▁an 1865
ả 1866
▁PA 1867
▁الب 1868
▁ば 1869
TAR 1870
OUR 1871
ó 1872
▁ТОЖЕ 1873
▁xã 1874
▁เดิน 1875
้ง 1876
ยา 1877
DIRI 1878
ПРИ 1879
人 1880
END 1881
ود 1882
SHE 1883
▁PART 1884
ء 1885
НИК 1886
▁二十 1887
▁路 1888
▁حتى 1889
▁BERSAMA 1890
JO 1891
قا 1892
▁lúc 1893
كل 1894
▁sức 1895
▁SEKALI 1896
▁nếu 1897
فر 1898
▁พบ 1899
▁教 1900
▁biệt 1901
▁立 1902
▁THING 1903
ロ 1904
ИС 1905
▁元 1906
НОМ 1907
БО 1908
HAM 1909
▁คดี 1910
じ 1911
СКОЙ 1912
▁ạ 1913
ên 1914
フ 1915
▁ИЛИ 1916
▁MAU 1917
▁РЕ 1918
▁รอ 1919
قل 1920
SEBELUM 1921
▁BAIK 1922
▁量 1923
ทาง 1924
▁เหมือน 1925
▁算 1926
▁なく 1927
در 1928
DALAM 1929
ТЬСЯ 1930
RAN 1931
ú 1932
▁เจ้าหน้าที่ 1933
็ 1934
▁こちら 1935
▁LITTLE 1936
TON 1937
يق 1938
▁อ่ะ 1939
ANCE 1940
▁ช่วย 1941
▁LIFE 1942
▁父 1943
▁DATA 1944
▁أنه 1945
▁ПРЕД 1946
ТЕЛЬ 1947
AU 1948
▁たち 1949
▁โอ้โห 1950
▁ONLY 1951
▁máy 1952
▁KASUS 1953
SON 1954
НУЮ 1955
▁КОТОРЫЕ 1956
ระ 1957
▁ア 1958
▁ảnh 1959
▁指 1960
かっ 1961
▁WELL 1962
▁POLITIK 1963
IVE 1964
ЖИ 1965
▁quyết 1966
ША 1967
▁БЫЛА 1968
▁bắt 1969
▁PENG 1970
▁บ้าง 1971
ЛУ 1972
AC 1973
▁EVEN 1974
IST 1975
▁JAWA 1976
RUS 1977
▁FA 1978
▁ประมาณ 1979
▁PUNYA 1980
ЛЮБ 1981
▁MANY 1982
เบ 1983
▁声 1984
▁ТОГО 1985
▁เปิด 1986
▁へ 1987
キ 1988
▁KO 1989
も 1990
▁清 1991
▁КО 1992
▁SHOW 1993
▁หน้า 1994
▁命 1995
▁BESAR 1996
▁tỉnh 1997
▁hiệu 1998
▁B 1999
ЕШЬ 2000
ATAU 2001
▁พ 2002
▁hoạt 2003
PUT 2004
اص 2005
▁địa 2006
تك 2007
GEN 2008
▁báo 2009
بد 2010
▁tham 2011
TIK 2012
POS 2013
LET 2014
ПЕРЕВЕДИ 2015
▁đất 2016
▁xem 2017
▁МНОГО 2018
วย 2019
▁GREAT 2020
▁dùng 2021
▁أيضا 2022
▁やっ 2023
▁НУЖНО 2024
РОВ 2025
لت 2026
▁thương 2027
لو 2028
TIC 2029
ộ 2030
▁الر 2031
▁cậu 2032
▁与 2033
ЛЮ 2034
ОС 2035
▁hệ 2036
▁xin 2037
▁เข้ามา 2038
▁近 2039
nếu 2040
FA 2041
جن 2042
Ё 2043
▁空 2044
إ 2045
▁tiên 2046
▁chương 2047
▁ai 2048
อย 2049
▁hoàn 2050
▁เหมือนกัน 2051
้อง 2052
▁KON 2053
▁SHOULD 2054
▁MOST 2055
▁П 2056
▁แค่ 2057
ОР 2058
อด 2059
▁眼 2060
▁THREE 2061
يم 2062
▁hôm 2063
▁ところ 2064
▁สิ 2065
▁民 2066
▁られ 2067
タ 2068
TERIMA 2069
▁房 2070
BUR 2071
▁phim 2072
๒ 2073
▁こう 2074
ATED 2075
WELL 2076
▁KEMBALI 2077
СТВО 2078
▁投 2079
يش 2080
▁sách 2081
ВОТ 2082
▁消 2083
▁ТОМ 2084
РОД 2085
と 2086
ร์ 2087
СТАВ 2088
▁だっ 2089
لم 2090
▁ภาพ 2091
UNT 2092
MAS 2093
UK 2094
СЬ 2095
ã 2096
▁BO 2097
RED 2098
ري 2099
EM 2100
▁คลิป 2101
▁ทีนี้ 2102
▁БЫТЬ 2103
ương 2104
PUN 2105
▁БОЛЬШЕ 2106
▁đẹp 2107
APAKAH 2108
▁ทีม 2109
قي 2110
GAL 2111
SION 2112
ณ 2113
▁พ่อ 2114
MAKA 2115
▁БЫЛИ 2116
▁loại 2117
رب 2118
▁يمكن 2119
▁嘛 2120
▁hỏi 2121
▁chi 2122
▁thống 2123
ИТЕЛЬ 2124
▁制 2125
▁LIHAT 2126
▁thân 2127
プ 2128
▁إن 2129
ơ 2130
ตร 2131
TIM 2132
ธรรม 2133
АНИЯ 2134
▁ЭТОТ 2135
▁MASUK 2136
▁สามารถ 2137
▁JALAN 2138
▁bác 2139
ЛЕН 2140
NESS 2141
DY 2142
▁mạnh 2143
DANG 2144
LESS 2145
▁WI 2146
▁chí 2147
مل 2148
وك 2149
NAMUN 2150
กล 2151
những 2152
حل 2153
チ 2154
▁สอง 2155
▁利 2156
▁МОЖЕТ 2157
كون 2158
▁越 2159
▁服 2160
MY 2161
АЛЬ 2162
▁送 2163
▁bán 2164
体 2165
ВЕД 2166
▁nghệ 2167
ПРО 2168
๊ 2169
▁chế 2170
▁光 2171
▁台 2172
▁SALAH 2173
▁望 2174
КРЫ 2175
▁diễn 2176
IES 2177
SUR 2178
وف 2179
▁DIFFERENT 2180
▁SEBENARNYA 2181
動 2182
خط 2183
ดา 2184
PO 2185
ЧУ 2186
LAND 2187
อน 2188
ЕЕ 2189
▁thi 2190
▁đưa 2191
يع 2192
WHICH 2193
วา 2194
▁กลุ่ม 2195
КОЙ 2196
▁bố 2197
PRI 2198
▁จับ 2199
▁此 2200
ミ 2201
▁الخ 2202
▁HUKUM 2203
▁だけ 2204
▁TEMAN 2205
qu 2206
▁cứ 2207
ฝ 2208
▁đặc 2209
▁半 2210
ХА 2211
اع 2212
لة 2213
▁LA 2214
SAN 2215
Щ 2216
▁持 2217
СЫ 2218
АТЬСЯ 2219
物 2220
ВОД 2221
▁MANA 2222
một 2223
▁หา 2224
▁bên 2225
▁hoặc 2226
しい 2227
▁sáng 2228
▁หมด 2229
IKAN 2230
СТВ 2231
▁cố 2232
▁เก 2233
▁HI 2234
الم 2235
ALL 2236
ЦИИ 2237
TETAPI 2238
GAR 2239
▁เยอะ 2240
オ 2241
▁أنا 2242
تر 2243
▁ca 2244
AMAN 2245
АК 2246
ứ 2247
СКА 2248
▁thanh 2249
▁ولكن 2250
▁KIRA 2251
▁ЗНАЮ 2252
พร 2253
▁区 2254
СТЬ 2255
▁hoa 2256
СТРА 2257
▁จน 2258
▁店 2259
GET 2260
طة 2261
▁เวลา 2262
СТРО 2263
▁KASIH 2264
PT 2265
▁病 2266
▁عليه 2267
▁ทุก 2268
▁ชาวบ้าน 2269
▁PRE 2270
▁でき 2271
▁เจ้า 2272
▁giảm 2273
▁息 2274
▁ใส่ 2275
シ 2276
▁USE 2277
▁gặp 2278
▁เอ 2279
МНЕ 2280
ニ 2281
▁ch 2282
СТАН 2283
ТАК 2284
▁号 2285
▁tất 2286
▁tục 2287
▁กิน 2288
้ม 2289
▁母 2290
ИТЕ 2291
▁الف 2292
▁phục 2293
▁MAR 2294
▁พัก 2295
▁الص 2296
БР 2297
▁HELP 2298
▁kỳ 2299
▁RES 2300
▁ЕЁ 2301
ДР 2302
▁trang 2303
▁หรือเปล่า 2304
ЁМ 2305
▁CUKUP 2306
ONG 2307
GAN 2308
АТ 2309
▁ため 2310
▁DAERAH 2311
حق 2312
▁คุย 2313
▁需 2314
КОМ 2315
▁MAN 2316
▁بأن 2317
يت 2318
ЕСЛИ 2319
PADA 2320
▁周 2321
เต 2322
АНИЕ 2323
▁OFF 2324
HOW 2325
ประ 2326
▁必 2327
ВАЛ 2328
วน 2329
جد 2330
تها 2331
▁giao 2332
▁tích 2333
СК 2334
▁KALI 2335
▁đặt 2336
▁COME 2337
ENCE 2338
وق 2339
طب 2340
▁ご 2341
УМ 2342
حر 2343
▁PERTAMA 2344
▁TEMPAT 2345
▁でしょう 2346
▁TRANS 2347
СТВА 2348
▁BUKAN 2349
野 2350
▁cá 2351
▁bất 2352
▁でし 2353
▁院 2354
▁hồ 2355
▁失 2356
หม 2357
حا 2358
ブ 2359
▁ty 2360
上 2361
▁vật 2362
▁اليوم 2363
▁CAR 2364
وع 2365
▁AIR 2366
▁ВООБЩЕ 2367
KAT 2368
▁INGIN 2369
▁包 2370
▁火 2371
LAM 2372
ДРУГ 2373
▁สุ 2374
事 2375
ウ 2376
▁TETAP 2377
เป 2378
ANGKA 2379
صر 2380
ット 2381
▁基 2382
▁án 2383
قر 2384
▁ВАМ 2385
▁神 2386
そ 2387
▁整 2388
WHEN 2389
JE 2390
▁nông 2391
▁底 2392
ลา 2393
▁เรียก 2394
ความ 2395
▁دول 2396
CUL 2397
ALLY 2398
▁หรือว่า 2399
▁政 2400
▁ВАС 2401
▁ПАР 2402
ผล 2403
▁كانت 2404
ứng 2405
رد 2406
▁ตั้งแต่ 2407
حي 2408
▁وأ 2409
▁chuyển 2410
▁سي 2411
لي 2412
▁城 2413
▁อ 2414
▁ตอน 2415
VING 2416
気 2417
ВАТЬ 2418
▁ตรวจสอบ 2419
▁لكن 2420
เจ 2421
รี 2422
▁建 2423
SER 2424
▁今日 2425
▁MENGE 2426
▁เพื่อน 2427
▁SIH 2428
يين 2429
▁thêm 2430
▁条 2431
OB 2432
まっ 2433
▁HINGGA 2434
び 2435
OM 2436
げ 2437
▁đồ 2438
HER 2439
▁はい 2440
▁商 2441
▁求 2442
▁cảnh 2443
▁ใช่ไหม 2444
▁共 2445
หน 2446
エ 2447
せ 2448
đây 2449
場 2450
هذا 2451
LAR 2452
▁ВОЗ 2453
▁ข้าง 2454
ДЕР 2455
DIK 2456
▁ด้าน 2457
NU 2458
ЁТ 2459
▁يكون 2460
AKU 2461
THANK 2462
để 2463
ЕЦ 2464
ِّ 2465
รุ 2466
MAT 2467
▁gần 2468
CUR 2469
▁選手 2470
▁ХОЧУ 2471
ARAN 2472
JANGAN 2473
▁thủ 2474
▁OWN 2475
▁DULU 2476
▁ตัวเอง 2477
▁COMP 2478
REN 2479
▁流 2480
ЦА 2481
ШИ 2482
▁ВИД 2483
عة 2484
▁TAHU 2485
trường 2486
СКЕ 2487
TRO 2488
▁ไปดู 2489
▁อา 2490
ОЕ 2491
POL 2492
▁往 2493
ăng 2494
ОНА 2495
▁JE 2496
スト 2497
SUS 2498
▁TELAH 2499
๙ 2500
▁ซื้อ 2501
▁หลัง 2502
メ 2503
УТ 2504
АЮТ 2505
▁สี 2506
▁bây 2507
▁كما 2508
ИВ 2509
▁県 2510
vì 2511
▁ไง 2512
ナ 2513
▁mang 2514
▁つい 2515
IAL 2516
▁บน 2517
LES 2518
▁PAN 2519
حال 2520
▁gọi 2521
▁ЛЕТ 2522
AAN 2523
▁vi 2524
ذا 2525
ば 2526
▁MEMBUAT 2527
НИЙ 2528
ЩИ 2529
▁thiết 2530
КАЗ 2531
▁สิ่ง 2532
khi 2533
ph 2534
НЕЙ 2535
▁娘 2536
VA 2537
▁弟 2538
cô 2539
▁đông 2540
▁nghe 2541
▁PUT 2542
▁BAGI 2543
▁ПОЛ 2544
▁TERUS 2545
▁nơi 2546
PL 2547
MON 2548
ญ 2549
▁HIGH 2550
▁待 2551
▁СЕГОДНЯ 2552
LED 2553
ภาพ 2554
▁ЧЕМ 2555
ENG 2556
▁MALAM 2557
▁CA 2558
ГОД 2559
▁取 2560
▁الك 2561
▁POINT 2562
LING 2563
ANA 2564
▁SINI 2565
ัย 2566
▁จัด 2567
SY 2568
BY 2569
▁hiểu 2570
مي 2571
▁ban 2572
▁至 2573
▁است 2574
ИЮ 2575
FORM 2576
▁より 2577
▁後 2578
▁กลับ 2579
▁โรงพยาบาล 2580
▁婚 2581
سر 2582
▁ประชาชน 2583
▁tay 2584
ЕД 2585
▁إذا 2586
SAR 2587
CTION 2588
▁夫 2589
SC 2590
▁tiểu 2591
▁mỗi 2592
▁BIASA 2593
▁故 2594
TES 2595
BAHKAN 2596
▁KEDUA 2597
▁เสียชีวิต 2598
ЦЕ 2599
ВОЙ 2600
▁色 2601
รูป 2602
▁ش 2603
▁PIHAK 2604
▁FIND 2605
▁ตรง 2606
▁thay 2607
เม 2608
ิด 2609
OUS 2610
âm 2611
LINE 2612
▁phí 2613
▁ФИЛЬМ 2614
▁tuổi 2615
▁ГОРОД 2616
БИ 2617
▁КОТОРЫЙ 2618
يك 2619
وجود 2620
PRO 2621
カ 2622
بة 2623
▁首 2624
УЧ 2625
STA 2626
▁vực 2627
▁ขาย 2628
▁PROSES 2629
▁式 2630
▁LANGSUNG 2631
が 2632
ARTINYA 2633
▁MENGA 2634
▁南 2635
▁đơn 2636
▁MEAN 2637
▁sở 2638
▁START 2639
▁影 2640
เข 2641
هو 2642
▁đánh 2643
▁COVID 2644
КОН 2645
هي 2646
اف 2647
ố 2648
▁ใหม่ 2649
▁いき 2650
áo 2651
๖ 2652
▁ยิง 2653
▁ต้น 2654
เงิน 2655
VEN 2656
▁ولا 2657
▁程 2658
▁SA 2659
▁hướng 2660
ТРИ 2661
عود 2662
em 2663
กร 2664
▁อ่า 2665
▁นิ 2666
YEAH 2667
▁lời 2668
▁ТЕБЕ 2669
▁ห้อง 2670
เก 2671
▁演 2672
▁วันที่ 2673
▁النظام 2674
í 2675
▁LUAR 2676
▁LOVE 2677
▁FIVE 2678
สา 2679
▁khá 2680
COR 2681
SEMENTARA 2682
قد 2683
▁hạn 2684
▁LALU 2685
عمل 2686
▁НАМ 2687
▁nguyên 2688
เรือ 2689
▁AFTER 2690
ối 2691
マ 2692
ГЕ 2693
▁nhiêu 2694
БОР 2695
▁โดน 2696
▁音 2697
▁照 2698
เช 2699
▁ください 2700
بار 2701
БЛ 2702
▁STILL 2703
▁ТАКОЙ 2704
▁КАКОЙ 2705
▁客 2706
ชาติ 2707
リー 2708
▁CHANGE 2709
เรียน 2710
RING 2711
คล 2712
▁BEFORE 2713
▁PROGRAM 2714
ọ 2715
tuy 2716
▁DOING 2717
่อ 2718
DEN 2719
SES 2720
▁قبل 2721
AY 2722
ИТЬСЯ 2723
▁TERHADAP 2724
▁بعض 2725
▁准 2726
DAY 2727
BUNG 2728
DING 2729
ЧИТ 2730
KAR 2731
ฮ 2732
ック 2733
▁WAR 2734
▁ПОСЛЕ 2735
▁AROUND 2736
▁笑 2737
GG 2738
手 2739
f 2740
▁深 2741
▁ТЕМ 2742
▁雨 2743
▁ครอบครัว 2744
ЛЕТ 2745
كر 2746
▁СКАЗАЛ 2747
АЕТСЯ 2748
▁JOKOWI 2749
▁界 2750
دو 2751
EX 2752
BAGAIMANA 2753
▁biến 2754
▁SOAL 2755
ù 2756
▁KETIKA 2757
▁มาจาก 2758
BEL 2759
EVER 2760
ЫМ 2761
▁dẫn 2762
力 2763
▁MIGHT 2764
▁集 2765
▁บริเวณ 2766
▁سوريا 2767
CL 2768
ДАВАЙ 2769
行 2770
▁カ 2771
ến 2772
▁支 2773
КАКАЯ 2774
▁КТО 2775
ti 2776
▁改 2777
سا 2778
木 2779
▁БЕЗ 2780
▁いっ 2781
نة 2782
▁เอาไว้ 2783
▁mỹ 2784
ДОБ 2785
▁nhìn 2786
▁ผ่าน 2787
▁СТОИТ 2788
▁便 2789
TEM 2790
é 2791
WAS 2792
開 2793
วด 2794
▁SAME 2795
▁ประเทศ 2796
POLI 2797
وات 2798
رس 2799
▁考 2800
▁SEKITAR 2801
▁เห 2802
▁REAL 2803
む 2804
THEN 2805
▁mấy 2806
▁lợi 2807
وه 2808
ПРОС 2809
▁MAY 2810
ЛСЯ 2811
ビ 2812
УЗ 2813
КОЛ 2814
▁ที่ผ่านมา 2815
▁ВСЕГО 2816
ê 2817
РАН 2818
phim 2819
▁ก็ได้ 2820
▁DAY 2821
MEREKA 2822
ARY 2823
▁đủ 2824
НИЕ 2825
ธิ 2826
سب 2827
KEN 2828
▁感じ 2829
cái 2830
▁ПОКА 2831
ụ 2832
TAL 2833
▁HAND 2834
เหตุ 2835
▁khoảng 2836
▁nhỏ 2837
▁mất 2838
▁TELL 2839
▁MADE 2840
WHERE 2841
ợ 2842
СМОТР 2843
▁AGAIN 2844
▁れる 2845
▁cứu 2846
▁phụ 2847
▁ตั้ง 2848
▁á 2849
▁初 2850
بت 2851
▁trợ 2852
▁PLACE 2853
▁いく 2854
RAH 2855
▁PUN 2856
ITAS 2857
▁未 2858
▁НИХ 2859
▁นัก 2860
ЖИВ 2861
▁chứ 2862
قال 2863
يف 2864
▁SET 2865
▁IBU 2866
定 2867
川 2868
▁chiến 2869
▁段 2870
ДЖ 2871
業 2872
YE 2873
thế 2874
sau 2875
▁المتحدة 2876
وج 2877
▁เริ่ม 2878
▁時間 2879
▁قد 2880
▁อุ 2881
БУ 2882
▁tra 2883
LAY 2884
▁食 2885
อา 2886
▁実 2887
Ъ 2888
2 2889
▁BULAN 2890
▁từng 2891
▁MEDIA 2892
▁หนู 2893
JAR 2894
WAN 2895
ЕК 2896
ế 2897
หนึ่ง 2898
▁YEAR 2899
▁KORBAN 2900
▁พล 2901
▁khí 2902
ลง 2903
▁MEMBERIKAN 2904
テ 2905
▁dục 2906
ولا 2907
▁たり 2908
中 2909
▁khỏe 2910
▁นา 2911
▁cổ 2912
▁KOM 2913
НЕТ 2914
▁また 2915
่าง 2916
▁FEEL 2917
▁هل 2918
▁bé 2919
▁留 2920
БЕ 2921
YES 2922
々 2923
СТАР 2924
TAS 2925
НЕЕ 2926
▁والم 2927
إن 2928
強 2929
SING 2930
▁liệu 2931
ЕТЬ 2932
▁يت 2933
ò 2934
▁chọn 2935
▁GIVE 2936
▁คัน 2937
▁ОСТА 2938
RANG 2939
▁字 2940
▁luật 2941
▁nhập 2942
▁đội 2943
คืน 2944
ДЫ 2945
ПЛАТ 2946
▁cửa 2947
ツ 2948
▁DIDN 2949
ПОЛ 2950
ダ 2951
▁kiến 2952
▁せ 2953
СКОМ 2954
▁الرئيس 2955
▁ТУТ 2956
เว 2957
▁科 2958
LOG 2959
▁宝 2960
ВИД 2961
ไม้ 2962
TURE 2963
▁mở 2964
كي 2965
▁vô 2966
▁เชื่อ 2967
له 2968
▁根 2969
▁chu 2970
▁นี่แหละ 2971
▁chứng 2972
STER 2973
▁TALK 2974
ЕННО 2975
ALI 2976
ใหญ่ 2977
▁KESEHATAN 2978
▁الدولة 2979
▁chơi 2980
vâng 2981
▁nghĩa 2982
▁警 2983
▁TENGAH 2984
▁片 2985
度 2986
▁เล่า 2987
BECAUSE 2988
รัก 2989
▁tiết 2990
ราช 2991
▁تت 2992
▁ليس 2993
▁み 2994
SELAMAT 2995
SEPERTI 2996
NS 2997
▁DAPAT 2998
نفس 2999
▁あと 3000
ケ 3001
▁tiến 3002
ATIONS 3003
▁FOUR 3004
▁วัด 3005
خل 3006
IH 3007
▁由 3008
KAH 3009
▁官 3010
KER 3011
▁dựng 3012
▁ยา 3013
▁giả 3014
nó 3015
▁chung 3016
▁عام 3017
▁السوري 3018
▁PRA 3019
▁vệ 3020
▁trí 3021
جز 3022
فق 3023
▁กร 3024
▁НАДО 3025
▁ТАКЖЕ 3026
๔ 3027
▁急 3028
ЗИ 3029
▁kiểm 3030
БОЛЬШ 3031
▁自分 3032
▁สัก 3033
▁技 3034
▁เสียง 3035
▁أكثر 3036
▁PALING 3037
อร์ 3038
▁แจ้ง 3039
▁xây 3040
TAIN 3041
СТР 3042
▁FACT 3043
百 3044
▁酒 3045
DES 3046
ết 3047
CON 3048
▁นั่ง 3049
▁เสีย 3050
نظر 3051
НОСТИ 3052
NY 3053
BAHWA 3054
▁容 3055
▁tượng 3056
เน 3057
แรง 3058
▁غير 3059
UAN 3060
▁NEVER 3061
▁BARAT 3062
▁đá 3063
▁社 3064
▁気 3065
ได้ 3066
ず 3067
▁PERSON 3068
SIS 3069
حزب 3070
▁กลับมา 3071
▁ตรงนี้ 3072
▁展 3073
▁TOO 3074
BUK 3075
▁บาง 3076
▁思っ 3077
SALAH 3078
▁HO 3079
▁PLAN 3080
▁MULAI 3081
NER 3082
ТЯ 3083
▁thuật 3084
▁LONG 3085
OUT 3086
▁形 3087
▁الشعب 3088
▁ЭТИ 3089
3 3090
دع 3091
▁สาย 3092
ЦИ 3093
▁quyền 3094
▁แรก 3095
TAM 3096
▁ДЕ 3097
▁ตลอด 3098
INE 3099
▁หรับ 3100
РАЗ 3101
PS 3102
ЛИСЬ 3103
KAMI 3104
▁喝 3105
CHE 3106
CER 3107
▁BIG 3108
PORT 3109
▁سيد 3110
MAR 3111
▁وم 3112
ICAL 3113
▁chú 3114
อม 3115
▁khiến 3116
▁lập 3117
▁玩 3118
▁ПРЕ 3119
RASI 3120
▁PERLU 3121
▁ござい 3122
CAP 3123
bài 3124
سل 3125
部 3126
▁ЧЕЛОВЕК 3127
▁món 3128
▁hưởng 3129
حد 3130
EF 3131
▁SCHOOL 3132
▁khoa 3133
SERTA 3134
▁ได้รับ 3135
▁ATAS 3136
OS 3137
เล 3138
MIS 3139
CAR 3140
ТУР 3141
▁円 3142
АЛА 3143
▁DOES 3144
▁救 3145
БЕР 3146
▁ต่อไป 3147
▁ЛЮДИ 3148
▁สุดท้าย 3149
هل 3150
ラン 3151
地 3152
เค 3153
HAL 3154
▁PROBLEM 3155
تي 3156
LALU 3157
▁希 3158
▁DEPAN 3159
JAK 3160
▁差 3161
hãy 3162
員 3163
الي 3164
وما 3165
СТЕ 3166
OKAY 3167
▁k 3168
▁ตก 3169
x 3170
КЛЮЧ 3171
SELAIN 3172
สน 3173
▁MEMILIKI 3174
قض 3175
▁bỏ 3176
▁ทําไม 3177
▁案 3178
▁李 3179
từ 3180
▁ЯЗЫКЕ 3181
สง 3182
▁ITS 3183
LIGHT 3184
▁バ 3185
▁TERKAIT 3186
分 3187
▁SELAMA 3188
▁cây 3189
▁THOUSAND 3190
▁العالم 3191
▁КОНЕЧНО 3192
▁พร้อม 3193
KING 3194
▁SYSTEM 3195
▁xử 3196
▁苦 3197
▁LAST 3198
▁พยายาม 3199
▁đời 3200
طر 3201
▁chia 3202
اش 3203
AG 3204
▁FOUND 3205
ГОТОВ 3206
▁نحن 3207
▁なん 3208
▁العراق 3209
CLE 3210
ВИН 3211
АЙ 3212
内 3213
▁خلال 3214
صد 3215
ự 3216
▁สาร 3217
مت 3218
BRI 3219
▁IDEA 3220
▁وي 3221
▁lâu 3222
▁BOOK 3223
日 3224
HOR 3225
▁หาย 3226
▁فيها 3227
ДЕТ 3228
▁QUESTION 3229
▁لك 3230
▁ПА 3231
5 3232
فعل 3233
НОСТЬ 3234
▁できる 3235
▁cuối 3236
แท 3237
EIGHT 3238
صف 3239
▁WEEK 3240
BIN 3241
УС 3242
▁AM 3243
▁突 3244
▁น่าจะ 3245
▁ngay 3246
▁ВОЗДУХА 3247
CY 3248
ổ 3249
▁แก 3250
▁trả 3251
▁viện 3252
▁bởi 3253
▁WHY 3254
АЦИИ 3255
CENT 3256
๓ 3257
▁ทั้งหมด 3258
▁ГОРОДА 3259
▁答 3260
▁chuyên 3261
ЦИЯ 3262
DAM 3263
▁ДЕНЬ 3264
علم 3265
▁ngành 3266
ム 3267
ЖА 3268
▁ข้อ 3269
سو 3270
▁СТРАН 3271
▁NIH 3272
▁句 3273
en 3274
CR 3275
▁格 3276
تحدث 3277
▁khai 3278
ИШЬ 3279
جميع 3280
▁三十 3281
▁降 3282
▁gây 3283
ТРЕ 3284
จริง 3285
▁ล้าน 3286
▁挺 3287
▁CARE 3288
▁林 3289
▁เมื่อวาน 3290
▁LET 3291
OF 3292
▁東京 3293
▁phạm 3294
▁triệu 3295
▁そんな 3296
ลาย 3297
料 3298
▁UMUM 3299
▁DIPER 3300
СП 3301
บ้าน 3302
ขา 3303
▁CAME 3304
ОНИ 3305
▁歌 3306
▁EM 3307
▁mạng 3308
هر 3309
▁الد 3310
▁รัฐ 3311
MED 3312
▁NUMBER 3313
▁เดือน 3314
▁及 3315
▁nhanh 3316
مع 3317
▁ทุกคน 3318
長 3319
▁PLAY 3320
▁หมอ 3321
▁CALL 3322
島 3323
▁БО 3324
ARI 3325
▁ขนาด 3326
MUN 3327
PIR 3328
▁阿 3329
هذه 3330
وح 3331
علي 3332
DAR 3333
اج 3334
▁TWENTY 3335
âu 3336
▁ลุง 3337
▁切 3338
AKSI 3339
▁thuốc 3340
▁HOME 3341
họ 3342
▁hộ 3343
▁微 3344
▁夜 3345
ЦЫ 3346
جا 3347
RATE 3348
اني 3349
▁AD 3350
▁นึง 3351
FO 3352
▁示 3353
▁rõ 3354
勝 3355
▁なかっ 3356
ート 3357
▁MENGATAKAN 3358
▁الأمر 3359
▁AJA 3360
ГОР 3361
SUDAH 3362
▁ДВЕ 3363
▁สม 3364
▁ШТО 3365
▁ผู้ชาย 3366
▁อําเภอ 3367
OLEH 3368
▁精 3369
▁ซ 3370
ГЛАВ 3371
▁dễ 3372
▁GA 3373
ЁН 3374
▁بشكل 3375
NDA 3376
▁เมือง 3377
ЖУ 3378
ライ 3379
ФЕ 3380
▁ЭТУ 3381
ТОВ 3382
▁dài 3383
МЕСТ 3384
مثل 3385
đó 3386
▁ผู้หญิง 3387
▁СЕБЯ 3388
あ 3389
ASAN 3390
ГЛА 3391
▁đạo 3392
ЛОСЬ 3393
生 3394
デ 3395
▁MASA 3396
БЕС 3397
▁股 3398
ừ 3399
▁PERNAH 3400
▁GONNA 3401
رى 3402
KRI 3403
ボ 3404
▁ちゃん 3405
JUMLAH 3406
▁追 3407
PING 3408
▁注 3409
▁๖ 3410
▁đa 3411
▁功 3412
念 3413
▁CASE 3414
НИЯ 3415
RAP 3416
聞 3417
▁mức 3418
出 3419
▁坐 3420
▁THOUGHT 3421
▁เนิน 3422
أت 3423
▁END 3424
ガ 3425
▁NEXT 3426
รถ 3427
▁HUNDRED 3428
▁TODAY 3429
▁khăn 3430
▁ALWAYS 3431
ネ 3432
▁di 3433
يح 3434
▁càng 3435
▁ИСПОЛНИТЕЛЯ 3436
▁UNDER 3437
▁易 3438
WITH 3439
ВОР 3440
دين 3441
▁WA 3442
WIN 3443
▁睡 3444
▁สําคัญ 3445
ЕТЕ 3446
▁本当 3447
ЦЕН 3448
ЮТСЯ 3449
▁APP 3450
BANYAK 3451
止 3452
làm 3453
や 3454
ЧЕТ 3455
イン 3456
▁thái 3457
وة 3458
ô 3459
▁แฟน 3460
حم 3461
نسب 3462
▁DATANG 3463
▁trưởng 3464
MEM 3465
ền 3466
يعني 3467
ХОРОШ 3468
รง 3469
▁BENAR 3470
ュ 3471
VO 3472
JUST 3473
ど 3474
ั้น 3475
▁ชาย 3476
▁MENYE 3477
TIVE 3478
▁CALLED 3479
OD 3480
▁福 3481
احت 3482
ПОТОМУ 3483
MUDAH 3484
▁so 3485
▁局 3486
▁BI 3487
▁БОЛЕЕ 3488
ИЧЕСКИ 3489
NOT 3490
▁PENTING 3491
▁ANOTHER 3492
▁ПОТОМ 3493
ỏ 3494
PAT 3495
สม 3496
فت 3497
▁青 3498
ぶ 3499
GUN 3500
▁MENGGUNAKAN 3501
▁quản 3502
▁ดํา 3503
▁そこ 3504
СЛЕД 3505
▁肯 3506
li 3507
▁言 3508
RIGHT 3509
▁INTER 3510
▁kế 3511
ể 3512
جه 3513
▁nổi 3514
SEL 3515
يه 3516
▁ВОПРОС 3517
▁倒 3518
▁ЛЮДЕЙ 3519
▁MASALAH 3520
▁SANA 3521
▁kiện 3522
ИРОВАН 3523
▁КАР 3524
เพ 3525
▁ร้าย 3526
РАБОТ 3527
▁khả 3528
▁土 3529
رق 3530
▁すごい 3531
ФОРМ 3532
ВАЛИ 3533
▁IMPORTANT 3534
ัว 3535
TENTU 3536
▁マ 3537
▁phi 3538
ละ 3539
ภา 3540
▁戦 3541
▁tuần 3542
▁疑 3543
▁害 3544
▁sát 3545
ذكر 3546
НЮ 3547
▁bàn 3548
▁HUMAN 3549
▁พิ 3550
▁ปรากฏ 3551
▁giữ 3552
▁味 3553
لب 3554
СТАТ 3555
▁ตรวจ 3556
▁TIM 3557
▁nữ 3558
▁chuẩn 3559
người 3560
かけ 3561
▁けれど 3562
ai 3563
▁VIDEO 3564
▁به 3565
ذلك 3566
▁chắc 3567
4 3568
مال 3569
เรื่อง 3570
モ 3571
▁ИМЕННО 3572
thưa 3573
▁นาง 3574
ИР 3575
▁nhật 3576
LIS 3577
RT 3578
▁เดินทาง 3579
ข้าว 3580
▁ВОС 3581
用 3582
MUNGKIN 3583
▁DUNIA 3584
▁足 3585
▁考え 3586
ЩА 3587
ี่ 3588
▁mùa 3589
▁ТЕМПЕРАТУРУ 3590
CING 3591
▁hòa 3592
▁ข้อมูล 3593
ЛАД 3594
DAPAT 3595
▁مت 3596
▁НИ 3597
ДАН 3598
▁ถ่าย 3599
▁เล่น 3600
از 3601
▁อาการ 3602
ENTER 3603
ПОЛУЧ 3604
▁màu 3605
▁nghiệm 3606
▁РАБОТА 3607
ЛОЖ 3608
▁ましょう 3609
育 3610
▁ЭТОЙ 3611
PRES 3612
МИН 3613
LIKE 3614
▁МОГУ 3615
PANG 3616
ОВА 3617
▁POWER 3618
▁写 3619
ИК 3620
▁ปืน 3621
▁tử 3622
▁ชาว 3623
▁W 3624
▁hạ 3625
▁UNDERSTAND 3626
▁แห่ง 3627
ПРЕ 3628
ường 3629
▁แห 3630
KAP 3631
▁vui 3632
SHIP 3633
COL 3634
▁hãy 3635
ЦИЮ 3636
▁tối 3637
theo 3638
▁الط 3639
▁yếu 3640
▁เก็บ 3641
▁لن 3642
▁giữa 3643
▁慢 3644
ЕГО 3645
СУД 3646
▁布 3647
▁SAKIT 3648
หลัก 3649
ХИ 3650
▁ร่วม 3651
ISH 3652
▁KEMARIN 3653
أس 3654
▁KONDISI 3655
เป็น 3656
▁却 3657
WHILE 3658
▁KPK 3659
CREA 3660
FER 3661
▁発 3662
▁OLD 3663
▁兄 3664
ИЛА 3665
▁SETELAH 3666
▁ก่อเหตุ 3667
่น 3668
จา 3669
УЧА 3670
ước 3671
▁落 3672
أعتقد 3673
ЯН 3674
▁له 3675
ピ 3676
▁ศพ 3677
POR 3678
ند 3679
▁NAME 3680
▁ฝั่ง 3681
屋 3682
ROW 3683
▁KELUARGA 3684
CHA 3685
КОР 3686
ДУМ 3687
อาหาร 3688
▁ถนน 3689
فة 3690
صالح 3691
PIL 3692
ОЧНО 3693
▁นาน 3694
▁随 3695
KIN 3696
GAS 3697
RAL 3698
だ 3699
PUR 3700
▁НЕГО 3701
ОТКРОЙ 3702
▁SUB 3703
▁ДОМА 3704
СС 3705
▁ล่ะ 3706
giá 3707
▁MERUPAKAN 3708
▁思う 3709
جم 3710
▁خ 3711
▁ЦЕНТР 3712
РОС 3713
▁น้อย 3714
▁低 3715
▁まず 3716
▁TIMUR 3717
ĩ 3718
▁phân 3719
▁vùng 3720
▁لأن 3721
▁ชุด 3722
▁السياسي 3723
▁DR 3724
▁KAR 3725
دل 3726
点 3727
▁ผิด 3728
حب 3729
ARAH 3730
FF 3731
ЬЯ 3732
▁nhiệm 3733
FU 3734
▁ХОТЕЛ 3735
▁LIVE 3736
▁ДВАДЦАТЬ 3737
▁ชน 3738
ANDA 3739
▁السياسية 3740
▁SEBUAH 3741
連 3742
▁huy 3743
合 3744
SATU 3745
้าง 3746
▁thoại 3747
فل 3748
肉 3749
▁diện 3750
ИНА 3751
НЫМИ 3752
ЙТИ 3753
▁OPEN 3754
▁PASTI 3755
TERUS 3756
HAR 3757
▁أخرى 3758
▁MEMPER 3759
▁ดูแล 3760
หลัง 3761
СОТ 3762
▁京 3763
▁ومن 3764
ЛЕНИЕ 3765
БУДЬ 3766
▁AKU 3767
▁STATE 3768
ВКЛЮЧИ 3769
ngày 3770
ХОЧУ 3771
▁超 3772
▁党 3773
▁อย่า 3774
▁ฝ่าย 3775
▁đấu 3776
▁مصر 3777
ầm 3778
▁INFORMASI 3779
▁عبد 3780
状 3781
بع 3782
▁ИНФОРМАЦИЮ 3783
SOME 3784
ISM 3785
ЕР 3786
▁โพสต์ 3787
ベ 3788
▁志 3789
WAR 3790
ฉ 3791
面 3792
▁biển 3793
▁参 3794
▁CALON 3795
▁HEALTH 3796
▁ปลา 3797
ВАР 3798
▁LO 3799
▁DESA 3800
▁皆 3801
LIHAT 3802
ール 3803
▁ВИДЕО 3804
▁MBAK 3805
QU 3806
▁phá 3807
JIKA 3808
▁ที่สุด 3809
็ด 3810
▁เส 3811
▁đạt 3812
▁BETUL 3813
ТОМ 3814
HY 3815
MAYBE 3816
▁担 3817
ЛЫ 3818
▁君 3819
▁SAYS 3820
ki 3821
▁АНГЛИЙСКИЙ 3822
▁ตอบ 3823
وض 3824
НЬ 3825
▁FAR 3826
TERMASUK 3827
PAL 3828
لكن 3829
اح 3830
▁星 3831
▁ที่อยู่ 3832
▁lao 3833
حة 3834
▁أم 3835
▁PUBLIC 3836
▁ตี 3837
▁الحكومة 3838
▁BETTER 3839
РЕД 3840
ัญ 3841
EP 3842
▁食べ 3843
セ 3844
▁ปา 3845
▁già 3846
広 3847
▁SEJUMLAH 3848
▁推 3849
BAK 3850
▁SUPPORT 3851
▁عندما 3852
▁العام 3853
กฎหมาย 3854
▁朝 3855
▁COURSE 3856
▁dụ 3857
เซ 3858
▁世界 3859
▁linh 3860
GR 3861
▁คุณแม่ 3862
ИТСЯ 3863
▁tương 3864
khách 3865
าน 3866
▁КАКИЕ 3867
▁فقط 3868
er 3869
WHO 3870
وار 3871
▁ยืนยัน 3872
▁lấy 3873
▁ГОДА 3874
▁HARD 3875
▁あの 3876
PED 3877
▁MEMBER 3878
ВЕТ 3879
КОГО 3880
ُّ 3881
▁รา 3882
غا 3883
رت 3884
قو 3885
ôi 3886
▁ТАКИЕ 3887
▁ИН 3888
KAU 3889
▁站 3890
▁石 3891
▁lo 3892
▁الث 3893
ดู 3894
香 3895
بل 3896
つけ 3897
ТАКИ 3898
RON 3899
تنا 3900
مكن 3901
▁ผล 3902
اض 3903
▁nguyễn 3904
MES 3905
ัต 3906
▁ร้อง 3907
على 3908
r 3909
EMPAT 3910
ОБРА 3911
現 3912
NING 3913
▁ชื่อ 3914
機 3915
AGA 3916
▁ЧЕРЕЗ 3917
رض 3918
▁ДОБР 3919
sa 3920
ФА 3921
NILAI 3922
BAH 3923
残 3924
▁ใบ 3925
▁造 3926
▁兵 3927
える 3928
▁車 3929
اعت 3930
▁播 3931
ชน 3932
議 3933
▁trò 3934
▁ตา 3935
▁象 3936
▁ВАШ 3937
▁やっぱり 3938
者 3939
СКАЯ 3940
▁装 3941
▁НАЧАЛ 3942
▁الأمن 3943
ポ 3944
قول 3945
▁สร้าง 3946
▁cộng 3947
▁xa 3948
▁僕 3949
▁PAGI 3950
▁تكون 3951
▁MONEY 3952
上げ 3953
▁話 3954
ТЕЛЬНО 3955
وجه 3956
▁uống 3957
ЦИОН 3958
本 3959
КУП 3960
ROOM 3961
▁xác 3962
KSI 3963
▁ระหว่าง 3964
اه 3965
جي 3966
RS 3967
常 3968
▁受け 3969
ที 3970
ân 3971
BAS 3972
دم 3973
▁đáng 3974
▁背 3975
▁chiếc 3976
วัน 3977
▁ず 3978
▁duy 3979
▁NAMANYA 3980
▁願い 3981
MENG 3982
▁quán 3983
▁ВСЕХ 3984
▁今回 3985
TIN 3986
▁ПЕРЕВОД 3987
▁giống 3988
▁mưa 3989
▁nghị 3990
▁جدا 3991
▁РОССИИ 3992
▁敢 3993
▁続い 3994
ย์ 3995
▁DONE 3996
DUA 3997
РЯД 3998
▁thần 3999
وقف 4000
▁BOLEH 4001
▁nhớ 4002
▁nguồn 4003
KEM 4004
▁กลาง 4005
USAHA 4006
НЕМ 4007
▁hỗ 4008
▁久 4009
▁防 4010
▁ハ 4011
ị 4012
TIS 4013
ần 4014
ВОЛ 4015
▁BERADA 4016
เหลือ 4017
دور 4018
RIS 4019
CAN 4020
ВАН 4021
ズ 4022
▁tranh 4023
入れ 4024
ORANG 4025
▁ขับ 4026
СКИЕ 4027
СТУ 4028
▁板 4029
ИЛСЯ 4030
HARI 4031
▁НИЧЕГО 4032
ЕНИИ 4033
ター 4034
▁hiểm 4035
اك 4036
▁وأن 4037
▁ทอง 4038
ОСТЬ 4039
▁trạng 4040
▁ค่า 4041
ВОЗМОЖНО 4042
▁TENTANG 4043
▁СКАЗАТЬ 4044
▁ơn 4045
州 4046
BAL 4047
▁ST 4048
è 4049
▁คู่ 4050
КС 4051
▁trời 4052
▁ANTARA 4053
▁ราย 4054
▁НАПРИМЕР 4055
▁อยู่แล้ว 4056
▁قال 4057
ТРО 4058
EVEN 4059
▁สว 4060
AHAN 4061
АНТ 4062
山 4063
▁อืม 4064
قبل 4065
ЖЕН 4066
حكم 4067
▁thư 4068
まり 4069
ئة 4070
PP 4071
▁ลํา 4072
▁ТАКОЕ 4073
▁إيران 4074
إذ 4075
TCH 4076
PON 4077
▁รู้สึก 4078
ื้อ 4079
▁JAM 4080
お 4081
НИКА 4082
ПРОЕКТ 4083
▁LAW 4084
▁EACH 4085
▁PUBLIK 4086
▁球 4087
▁mai 4088
ARE 4089
▁MENDAPATKAN 4090
وز 4091
MENY 4092
▁เกิดเหตุ 4093
▁СРЕДНЮЮ 4094
وط 4095
▁nhạc 4096
LIN 4097
است 4098
▁ДУМАЮ 4099
▁đóng 4100
▁ลา 4101
▁TINGGI 4102
نق 4103
▁الذين 4104
▁存 4105
KENAPA 4106
▁CNN 4107
▁riêng 4108
▁DPR 4109
▁HOUSE 4110
▁بل 4111
กรรม 4112
▁パ 4113
hai 4114
▁GOD 4115
АЮ 4116
PANJANG 4117
▁เลือก 4118
عل 4119
▁xảy 4120
▁WENT 4121
▁lệ 4122
ВУ 4123
▁歳 4124
ИРОВАТЬ 4125
▁quay 4126
▁áp 4127
hi 4128
▁เครื่อง 4129
▁xuống 4130
▁KEEP 4131
ủ 4132
▁НАЙДИ 4133
▁เป็นการ 4134
▁lăm 4135
يز 4136
FIN 4137
▁tức 4138
BB 4139
▁言っ 4140
ta 4141
▁СДЕЛАТЬ 4142
▁TENTU 4143
لق 4144
▁忙 4145
▁BELIEVE 4146
ิก 4147
れる 4148
▁cụ 4149
▁LEVEL 4150
يس 4151
▁tố 4152
▁AWAL 4153
下 4154
▁châu 4155
▁SELURUH 4156
▁هنا 4157
▁ลักษณะ 4158
年 4159
▁CONS 4160
▁đảm 4161
▁สะ 4162
SAAT 4163
▁ít 4164
▁phong 4165
▁ชอบ 4166
▁ใหญ่ 4167
ATOR 4168
▁يجب 4169
▁GE 4170
mà 4171
▁ПОГОДЫ 4172
JEN 4173
INA 4174
ДОЛ 4175
▁KETUA 4176
РЕН 4177
▁SECOND 4178
РЕШ 4179
▁ДОБРАТЬСЯ 4180
ca 4181
BAGI 4182
風 4183
▁เสร็จ 4184
会 4185
▁BETWEEN 4186
▁СЕБЕ 4187
▁入っ 4188
ГДЕ 4189
▁CARA 4190
CES 4191
▁みたい 4192
▁怪 4193
▁ТРЕК 4194
▁長 4195
▁SORT 4196
対 4197
来 4198
وان 4199
関 4200
▁ngàn 4201
の 4202
แดง 4203
▁sẻ 4204
▁phủ 4205
▁TEST 4206
▁BIT 4207
ЕЛЬ 4208
▁chỗ 4209
RAT 4210
▁المت 4211
NAS 4212
▁mốt 4213
LON 4214
▁tên 4215
▁断 4216
▁БУ 4217
激 4218
ПРЕДСТАВ 4219
LANJUT 4220
▁KERJA 4221
▁停 4222
WARD 4223
شكل 4224
▁bay 4225
▁يقول 4226
▁trực 4227
РУС 4228
بدأ 4229
ITIES 4230
▁biểu 4231
BUKAN 4232
▁chống 4233
景 4234
▁楚 4235
▁МОЙ 4236
НОС 4237
▁助 4238
▁治 4239
▁tổng 4240
ШЛИ 4241
▁КОР 4242
▁العربية 4243
▁FEW 4244
นั้น 4245
▁PENGA 4246
FIR 4247
خر 4248
КАН 4249
▁若 4250
ARD 4251
بط 4252
▁DOESN 4253
تنظيم 4254
▁ВСЕГДА 4255
▁ПОСТАВЬ 4256
▁นอน 4257
▁俺 4258
CHI 4259
РУЖ 4260
رأي 4261
▁إسرائيل 4262
▁kể 4263
▁班 4264
▁พวก 4265
▁ชัย 4266
▁SEPULUH 4267
▁ЭТА 4268
VIS 4269
▁わけ 4270
نس 4271
เวลา 4272
TANG 4273
NIGHT 4274
▁САМО 4275
▁ЕМУ 4276
▁士 4277
▁MASING 4278
▁亮 4279
▁cực 4280
▁冷 4281
▁buổi 4282
ВСЕ 4283
▁GOVERNMENT 4284
СКИХ 4285
LEG 4286
▁nhá 4287
BENTUK 4288
▁ติดตาม 4289
▁付 4290
▁破 4291
▁لها 4292
▁MOMENT 4293
CEPAT 4294
ТОГДА 4295
▁BEST 4296
▁МОМЕНТ 4297
▁SIN 4298
礼 4299
▁尽 4300
▁ล่าสุด 4301
▁ЭТИМ 4302
▁tu 4303
SEBETULNYA 4304
見 4305
أم 4306
▁bóng 4307
室 4308
▁بم 4309
限 4310
▁守 4311
ЗОВ 4312
▁妹 4313
▁ХОРОШО 4314
ẹ 4315
IONS 4316
▁SEDANG 4317
▁tinh 4318
صح 4319
▁МАРШРУТ 4320
▁いや 4321
▁đoạn 4322
▁EXPERIENCE 4323
MEMANG 4324
▁СЕР 4325
دعم 4326
▁ใจ 4327
▁ngân 4328
▁lòng 4329
ЛОВ 4330
▁衣 4331
▁ปิด 4332
ЗАВТРА 4333
▁ДОМ 4334
▁武 4335
▁HEAR 4336
bạn 4337
べ 4338
▁หัว 4339
ХОТЯ 4340
▁คนร้าย 4341
東 4342
▁เหรอ 4343
هد 4344
▁およそ 4345
▁皇 4346
với 4347
▁quân 4348
▁وهو 4349
▁黄 4350
▁БУДУТ 4351
▁kỹ 4352
ソ 4353
ื่อ 4354
สด 4355
▁الدول 4356
МЕТ 4357
決 4358
SETELAH 4359
▁แน่ 4360
STI 4361
6 4362
КТ 4363
▁SUCH 4364
تش 4365
▁الل 4366
عن 4367
▁รอบ 4368
ПАР 4369
شي 4370
▁こ 4371
เย็น 4372
ップ 4373
▁สั่ง 4374
AIR 4375
▁เจ้าของ 4376
▁bắc 4377
DON 4378
▁คง 4379
▁ПОГОДА 4380
▁江 4381
▁trái 4382
جل 4383
▁lắm 4384
НИБУДЬ 4385
ЛАСЬ 4386
民 4387
▁สาม 4388
ôn 4389
▁BUSINESS 4390
ภูมิ 4391
▁省 4392
ТАМ 4393
▁dung 4394
国 4395
JUNG 4396
▁英 4397
▁khoản 4398
WAKIL 4399
▁hải 4400
▁PERCENT 4401
RIES 4402
▁NEWS 4403
▁ทราบ 4404
▁la 4405
▁فيه 4406
▁くれ 4407
ИНТЕРЕС 4408
ปาก 4409
قب 4410
حت 4411
▁đức 4412
▁ชีวิต 4413
▁ПОЭТОМУ 4414
▁nguy 4415
BRA 4416
▁ครู 4417
▁刻 4418
▁thiên 4419
▁dành 4420
▁具 4421
▁くる 4422
▁المنطقة 4423
▁คอ 4424
STRU 4425
คน 4426
▁hoạch 4427
▁BOTH 4428
▁STORY 4429
ẩn 4430
レー 4431
๋ 4432
▁JUTA 4433
๊ก 4434
▁môi 4435
▁nghỉ 4436
YAITU 4437
tại 4438
ตั้ง 4439
LIC 4440
ba 4441
ختلف 4442
ضم 4443
▁除 4444
▁奇 4445
سلم 4446
▁xu 4447
▁USED 4448
ăn 4449
▁MENURUT 4450
▁画 4451
出し 4452
▁ละ 4453
▁HEAD 4454
ุม 4455
do 4456
型 4457
▁الناس 4458
▁ขี่ 4459
▁APAKAH 4460
▁เพราะฉะนั้น 4461
▁二人 4462
МАН 4463
▁米 4464
▁mắt 4465
▁ながら 4466
がっ 4467
▁TEN 4468
يار 4469
▁ФИЛИАЛА 4470
玉 4471
ВЕСТИ 4472
САД 4473
休 4474
▁โค 4475
КОГДА 4476
▁SEORANG 4477
0 4478
▁ศรี 4479
側 4480
▁gái 4481
عيد 4482
▁lớp 4483
▁PRABOWO 4484
là 4485
▁kí 4486
BIS 4487
ЬЕ 4488
▁lưu 4489
LONG 4490
▁REASON 4491
▁แก้ 4492
قت 4493
ГРЕ 4494
hiện 4495
YO 4496
▁khẩu 4497
理 4498
▁ลอง 4499
▁môn 4500
СИЛ 4501
▁引 4502
▁SEJAK 4503
▁mục 4504
ออก 4505
ЕСТЬ 4506
ارات 4507
ACH 4508
ДЕВ 4509
▁サ 4510
ЛИБО 4511
▁AWAY 4512
▁เออ 4513
PLE 4514
▁ありがとう 4515
ORY 4516
▁ơ 4517
▁EXAMPLE 4518
▁WILAYAH 4519
▁đoàn 4520
ISASI 4521
▁GROUP 4522
ご 4523
หมาย 4524
NANTI 4525
▁ถือว่า 4526
▁sang 4527
▁EKONOMI 4528
ENSI 4529
▁TERAKHIR 4530
لف 4531
KUR 4532
ИГРА 4533
ХУ 4534
QUI 4535
▁HASIL 4536
▁mô 4537
АНА 4538
كا 4539
IDE 4540
ORS 4541
▁الأس 4542
▁cung 4543
رج 4544
BAWA 4545
РОЖ 4546
ỗ 4547
▁みんな 4548
▁chẳng 4549
رغ 4550
▁thuộc 4551
▁SIAPA 4552
▁ДЕЛАТЬ 4553
▁tưởng 4554
▁HAR 4555
▁NEGERI 4556
زي 4557
تهم 4558
▁phút 4559
عب 4560
▁SELALU 4561
▁แอ 4562
قتل 4563
ATING 4564
立 4565
БАН 4566
▁หนัก 4567
СТАЛ 4568
ペ 4569
حاول 4570
็ก 4571
▁こんな 4572
AF 4573
書 4574
ดิน 4575
▁ไฟ 4576
STE 4577
تلك 4578
dạ 4579
قام 4580
ЛЁ 4581
ЕДИ 4582
БИРА 4583
เลี้ยง 4584
▁ฉัน 4585
▁RASA 4586
ね 4587
زم 4588
IV 4589
▁ЛУЧШЕ 4590
СОВ 4591
اط 4592
▁GAME 4593
BUN 4594
▁配 4595
▁لي 4596
KET 4597
▁ma 4598
▁สา 4599
▁KABUPATEN 4600
▁ПОЧЕМУ 4601
BISA 4602
MENURUT 4603
▁MIND 4604
نظام 4605
VAL 4606
إذا 4607
▁MENTERI 4608
▁chào 4609
▁SAM 4610
▁企 4611
▁เดียว 4612
▁MOBIL 4613
ПР 4614
▁شيء 4615
▁بها 4616
▁ГОДУ 4617
ราคา 4618
ล่า 4619
СКО 4620
▁วิ่ง 4621
▁DKI 4622
ЗЕМ 4623
còn 4624
КРЕ 4625
เปลี่ยน 4626
居 4627
▁vận 4628
BERARTI 4629
فضل 4630
ОБЩ 4631
ПЛА 4632
▁chịu 4633
ЧЬ 4634
▁quảng 4635
▁sư 4636
ضع 4637
ضا 4638
▁nền 4639
▁إلا 4640
▁ยก 4641
▁SEMPAT 4642
رك 4643
รู้ 4644
▁SEKOLAH 4645
▁đô 4646
▁ฟ 4647
▁عمل 4648
バ 4649
ПУСТИ 4650
良 4651
حصل 4652
▁なら 4653
▁สภาพ 4654
▁แน่นอน 4655
▁КАЖЕТСЯ 4656
MULAI 4657
طو 4658
▁器 4659
▁БУДУ 4660
CAL 4661
▁ญาติ 4662
▁以上 4663
▁phù 4664
▁きょう 4665
إسلام 4666
▁น่า 4667
▁独 4668
on 4669
▁SOSIAL 4670
▁เพิ่ม 4671
VERS 4672
▁НОМЕР 4673
АЛЬНО 4674
▁عند 4675
▁TOP 4676
▁รท 4677
▁สามี 4678
مح 4679
▁الأميركية 4680
KIR 4681
LOKASI 4682
▁TOGETHER 4683
ТЕПЕРЬ 4684
▁LAMA 4685
外 4686
KON 4687
供 4688
w 4689
STAN 4690
TASI 4691
▁取り 4692
▁MOVE 4693
واضح 4694
道 4695
▁thiện 4696
▁منذ 4697
بعض 4698
▁เป็นเรื่อง 4699
▁幸 4700
ZA 4701
ữ 4702
▁САМОМ 4703
بعد 4704
▁LOOKING 4705
STRA 4706
▁الز 4707
▁เลข 4708
罪 4709
ồ 4710
▁ربما 4711
▁ตอนนั้น 4712
WO 4713
QUE 4714
▁よく 4715
ЗЫ 4716
▁ثم 4717
TAHAN 4718
▁hoàng 4719
KS 4720
غير 4721
▁МАГАЗИН 4722
▁DISAMPAIKAN 4723
▁SIX 4724
▁静 4725
قاد 4726
▁松 4727
SET 4728
▁وفي 4729
▁行っ 4730
أو 4731
مس 4732
▁cáo 4733
ét 4734
เมือง 4735
虽 4736
▁ประเด็น 4737
7 4738
▁BECOME 4739
判 4740
وضع 4741
▁SURE 4742
報 4743
▁ПРИМЕР 4744
▁ОСОБ 4745
TEL 4746
SERV 4747
RAM 4748
▁KAWASAN 4749
SIR 4750
校 4751
▁กลัว 4752
ぎ 4753
่อง 4754
▁BICARA 4755
▁犯 4756
ПИТ 4757
▁FAMILY 4758
▁to 4759
PETUGAS 4760
▁dù 4761
▁ภรรยา 4762
ЕХАТЬ 4763
▁เล 4764
TERN 4765
▁พิธี 4766
▁ロシア 4767
線 4768
▁وهذا 4769
▁ACT 4770
▁หนี 4771
8 4772
▁บุญ 4773
▁ký 4774
สาร 4775
SAL 4776
دول 4777
▁มิ 4778
▁نعم 4779
▁WHOLE 4780
座 4781
TADI 4782
▁ほど 4783
اخت 4784
عتقد 4785
▁داخل 4786
▁รักษา 4787
% 4788
МОР 4789
TERNYATA 4790
▁danh 4791
▁ТАКАЯ 4792
▁บา 4793
▁JOB 4794
▁TALKING 4795
▁มอง 4796
▁血 4797
▁МЕСТА 4798
แต่ 4799
НИЮ 4800
ノ 4801
▁ครั้ง 4802
▁phổ 4803
СТРОЙ 4804
▁РАЙОН 4805
▁العربي 4806
ส่วน 4807
เร 4808
▁الولايات 4809
▁toán 4810
MIL 4811
▁ぐらい 4812
▁ただ 4813
▁CREATE 4814
▁حق 4815
حيث 4816
▁أحد 4817
CAT 4818
▁chăm 4819
▁chân 4820
ЕНЬ 4821
SESUAI 4822
▁ADANYA 4823
IYA 4824
▁رئيس 4825
HOLD 4826
▁ASK 4827
▁وبالتالي 4828
FT 4829
ЧЕР 4830
ga 4831
ỉ 4832
▁สาว 4833
СТВУ 4834
كان 4835
MUR 4836
組 4837
ちゃ 4838
واجه 4839
▁НАХОДИТСЯ 4840
ジャ 4841
ВЕЛИ 4842
ИЛЬ 4843
▁cháu 4844
▁ลูกชาย 4845
▁vọng 4846
に 4847
▁HARGA 4848
▁tỷ 4849
▁เหมือนกับ 4850
BIT 4851
千 4852
▁lạ 4853
НЕР 4854
▁曾 4855
ハ 4856
▁TRYING 4857
▁nhu 4858
▁PAY 4859
SIGN 4860
▁หลักฐาน 4861
KES 4862
▁MENE 4863
▁nhóm 4864
ВАЯ 4865
▁cạnh 4866
▁互 4867
▁PROCESS 4868
ì 4869
▁BAPAK 4870
井 4871
▁REPORT 4872
ИЛИСЬ 4873
察 4874
عز 4875
▁НЕСКОЛЬКО 4876
▁夏 4877
▁ไทยรัฐ 4878
▁ที่มา 4879
ضر 4880
▁あれ 4881
▁ЯЗЫКА 4882
富 4883
ДЕЙ 4884
▁姑 4885
例 4886
▁السيد 4887
АЕМ 4888
ЛИЦ 4889
▁COUNTRY 4890
▁rộng 4891
▁HAVING 4892
▁ПРОГНОЗ 4893
▁МЕСТО 4894
▁hồi 4895
▁đau 4896
▁率 4897
▁РУК 4898
▁lạc 4899
▁AREA 4900
▁nuôi 4901
進 4902
ادي 4903
HEN 4904
ДУТ 4905
▁SEVEN 4906
JUAL 4907
แต่ง 4908
▁ATAUPUN 4909
ВОЕ 4910
DEKAT 4911
毛 4912
جاه 4913
ふ 4914
ПОМОГИ 4915
HAT 4916
قص 4917
▁gửi 4918
逃 4919
▁الغ 4920
▁STARTED 4921
وأ 4922
НИКИ 4923
▁密 4924
▁PI 4925
▁SERVICE 4926
パ 4927
نية 4928
▁BAGIAN 4929
入 4930
▁ПРЯМ 4931
ชื่อ 4932
▁争 4933
شكر 4934
▁PASS 4935
▁أنت 4936
▁المصري 4937
FRA 4938
MAH 4939
▁TURN 4940
▁拍 4941
▁КОТОРАЯ 4942
▁LAINNYA 4943
ОРГАН 4944
▁nghề 4945
vậy 4946
ПЛО 4947
▁dạy 4948
IBLE 4949
▁CLOSE 4950
إلى 4951
▁ví 4952
▁รอง 4953
IP 4954
▁ยุ 4955
▁GETTING 4956
▁JAUH 4957
شار 4958
URAN 4959
đừng 4960
УР 4961
明 4962
ัส 4963
▁番 4964
MAK 4965
▁SPEAK 4966
ПЛ 4967
▁اليمن 4968
ra 4969
▁bước 4970
КАМ 4971
▁thiếu 4972
▁МЕТРО 4973
▁温 4974
▁雪 4975
GUL 4976
MATI 4977
▁派 4978
الية 4979
AW 4980
KETIKA 4981
ШУ 4982
▁叔 4983
เห็น 4984
▁tiện 4985
WAY 4986
ХОДИТ 4987
HERE 4988
▁AKHIRNYA 4989
ЮСЬ 4990
▁UDAH 4991
LER 4992
KINI 4993
▁อื่น 4994
▁للم 4995
▁КЛАСС 4996
▁โลก 4997
▁รัฐบาล 4998
症 4999
กลาง 5000
乱 5001
▁MELALUI 5002
▁lan 5003
▁伝え 5004
نحن 5005
▁令 5006
▁ภาค 5007
ZE 5008
▁RELA 5009
▁NAMA 5010
êu 5011
▁究 5012
▁จอด 5013
ồng 5014
ひ 5015
▁BANG 5016
جماع 5017
ต์ 5018
ถึง 5019
่าย 5020
▁cha 5021
КРО 5022
▁府 5023
СТЕР 5024
▁NASIONAL 5025
▁tú 5026
ИСТ 5027
IZE 5028
شك 5029
素 5030
▁đôi 5031
▁速 5032
河 5033
▁آخر 5034
ЬЮ 5035
▁ตาย 5036
TAHU 5037
無 5038
▁PANDEMI 5039
▁COMMUNITY 5040
▁ชา 5041
▁AMERICAN 5042
بات 5043
สุ 5044
أخ 5045
ほ 5046
▁xong 5047
▁РЕСТОРАН 5048
UPAYA 5049
▁เกี่ยวกับ 5050
▁WORKING 5051
▁ДЕЛЕ 5052
▁BLACK 5053
▁ไม่ต้อง 5054
▁โรงเรียน 5055
▁SETIAP 5056
▁الوطني 5057
BOR 5058
▁khỏi 5059
KOM 5060
▁phúc 5061
委 5062
ワ 5063
▁يوم 5064
▁JELAS 5065
▁PRODUK 5066
าะ 5067
▁忘 5068
▁LEFT 5069
▁sơn 5070
▁アメリカ 5071
СКИ 5072
永 5073
▁mong 5074
GRO 5075
▁kiểu 5076
ภัย 5077
▁JU 5078
ПИС 5079
▁PRESIDENT 5080
▁تع 5081
cậu 5082
▁置 5083
▁ПОЕЗД 5084
EV 5085
عاد 5086
▁五十 5087
▁春 5088
APALAGI 5089
جعل 5090
▁LARGE 5091
ЧЕМ 5092
ียง 5093
▁克 5094
RENCANA 5095
ПУСК 5096
cho 5097
ЛИН 5098
▁ร้อย 5099
PUL 5100
▁村 5101
▁古 5102
หญิง 5103
▁ผู้ตาย 5104
حمل 5105
BL 5106
AMBIL 5107
▁tây 5108
▁控 5109
身 5110
▁НАВЕРНОЕ 5111
▁MAUPUN 5112
▁LEARN 5113
▁似 5114
NGGAK 5115
属 5116
▁RESEARCH 5117
▁ПЕСНЮ 5118
▁vũ 5119
▁ПЛАН 5120
▁旅 5121
▁ЖИЗНИ 5122
退 5123
▁ЕЩЕ 5124
▁角 5125
▁เอก 5126
▁đào 5127
▁สูง 5128
大 5129
ЧЁ 5130
▁BEGIN 5131
▁YOUNG 5132
親 5133
ДАР 5134
▁SENSE 5135
▁โควิด 5136
HIR 5137
▁كيف 5138
كثير 5139
เสียง 5140
▁xanh 5141
▁研 5142
▁ANYTHING 5143
▁CITY 5144
MENTS 5145
▁ไอ้ 5146
يط 5147
أما 5148
▁МОСК 5149
▁จํานวน 5150
群 5151
▁الأميركي 5152
▁INFORMATION 5153
▁SITU 5154
عرب 5155
▁AGAR 5156
選 5157
▁อาจารย์ 5158
▁左 5159
▁AUSTRALIA 5160
方 5161
▁كبير 5162
▁อัน 5163
▁ด้วยกัน 5164
▁phía 5165
ولكن 5166
GAK 5167
БОЛ 5168
DIC 5169
▁SAYING 5170
▁られる 5171
CIP 5172
街 5173
ro 5174
ORGAN 5175
دكتور 5176
سياسي 5177
▁สุด 5178
BON 5179
洗 5180
АЛИСЬ 5181
điều 5182
ذهب 5183
GH 5184
▁đà 5185
▁IM 5186
▁ПЕРЕД 5187
▁LISTEN 5188
▁FREE 5189
▁油 5190
รับ 5191
ОСТИ 5192
▁โทร 5193
ề 5194
แจ 5195
▁เตรียม 5196
SAMA 5197
▁สอบ 5198
▁TIMES 5199
▁انت 5200
痛 5201
МОЖЕТ 5202
ADI 5203
МАТ 5204
牛 5205
منطق 5206
▁SOCIAL 5207
斯 5208
軍 5209
▁الشر 5210
▁СТАТИСТИКУ 5211
شهد 5212
ให้ 5213
▁mời 5214
BEDA 5215
▁đầy 5216
ИКИ 5217
▁PASAR 5218
遇 5219
จะ 5220
thứ 5221
▁sắc 5222
▁vài 5223
▁НОВО 5224
▁ขน 5225
▁ART 5226
ЦЕЛ 5227
▁ДЕЛА 5228
تدخل 5229
بك 5230
▁covid 5231
▁ท่า 5232
右 5233
境 5234
ก่อน 5235
طل 5236
▁หลังจาก 5237
▁ВРЕМЕНИ 5238
КРИ 5239
SUPAYA 5240
▁dưới 5241
乗 5242
وية 5243
▁แสดง 5244
LOS 5245
▁KURANG 5246
▁hậu 5247
هؤلاء 5248
▁إليه 5249
発 5250
مسؤول 5251
▁ENOUGH 5252
▁ปกติ 5253
▁GROW 5254
▁TUH 5255
▁ТЕМПЕРАТУРЕ 5256
РАБ 5257
eo 5258
修 5259
จิต 5260
PLA 5261
藤 5262
KALI 5263
BOARD 5264
BUL 5265
▁ฝน 5266
▁じゃあ 5267
TERA 5268
▁phép 5269
▁suy 5270
اق 5271
▁بأ 5272
ЯХ 5273
ียน 5274
▁UANG 5275
▁PEMILU 5276
الذي 5277
▁WANTED 5278
ขึ้น 5279
ぐ 5280
▁SIDE 5281
VAKSIN 5282
▁أنها 5283
別 5284
كما 5285
عي 5286
▁trà 5287
ГРОМ 5288
▁đêm 5289
▁รายการ 5290
迎 5291
مسألة 5292
ไม่ 5293
承 5294
票 5295
移 5296
КСТАТИ 5297
خرج 5298
LIK 5299
▁SEBAGAINYA 5300
▁เพลง 5301
ELI 5302
▁FORM 5303
産 5304
ั่น 5305
学 5306
ШКИ 5307
خارج 5308
▁السل 5309
▁sớm 5310
صار 5311
船 5312
しく 5313
▁ลงมา 5314
ЫВАЕТ 5315
xin 5316
▁أمام 5317
БИР 5318
▁lễ 5319
PEC 5320
ลม 5321
داد 5322
▁الان 5323
菜 5324
▁عليها 5325
ทุน 5326
▁ضد 5327
▁RUPIAH 5328
لذلك 5329
曲 5330
▁PELAKU 5331
IB 5332
INVEST 5333
▁ngủ 5334
▁WITHOUT 5335
務 5336
▁SMALL 5337
AKIBAT 5338
كت 5339
ДЕРЖА 5340
▁đăng 5341
AZ 5342
FL 5343
▁ORDER 5344
้อน 5345
وفي 5346
ПАЛ 5347
ЛЕНИЯ 5348
▁とき 5349
▁ช่วยเหลือ 5350
ชีวิต 5351
BUS 5352
陪 5353
▁gắng 5354
▁DEMO 5355
▁ชั้น 5356
ELECT 5357
ОМУ 5358
▁ฝาก 5359
▁ngoại 5360
СИСТЕМ 5361
▁เกิน 5362
▁SIANG 5363
▁ТЫСЯЧ 5364
LEBIH 5365
عبر 5366
席 5367
▁เช้า 5368
▁nóng 5369
▁บุรี 5370
FRI 5371
▁lẽ 5372
ЗАНИМА 5373
▁KELUAR 5374
TIME 5375
▁AGAINST 5376
ЧИН 5377
▁KATA 5378
庭 5379
TOM 5380
▁CLEAR 5381
予 5382
SUL 5383
อากาศ 5384
МЕЧ 5385
▁STATES 5386
史 5387
СЕН 5388
สิทธิ์ 5389
▁مثل 5390
ẽ 5391
ี่ย 5392
電 5393
ร้อน 5394
▁นั่น 5395
ื่น 5396
宅 5397
▁hương 5398
谷 5399
con 5400
WHETHER 5401
БРА 5402
▁SAW 5403
فاق 5404
ITE 5405
▁ยังมี 5406
طلب 5407
JUR 5408
ПОД 5409
▁รายงาน 5410
▁sân 5411
ملك 5412
▁thuận 5413
АЛСЯ 5414
▁PROBABLY 5415
▁КАЖДЫЙ 5416
▁RUN 5417
▁อะ 5418
▁BAWAH 5419
▁САМЫЙ 5420
▁chút 5421
▁二千 5422
▁tuyến 5423
▁WHITE 5424
زل 5425
KAL 5426
波 5427
▁ВСТРЕЧ 5428
DUK 5429
依 5430
▁الثورة 5431
▁四十 5432
ลับ 5433
وقع 5434
攻 5435
АРИ 5436
زا 5437
СЛОВ 5438
戦 5439
ТАЙ 5440
材 5441
بين 5442
ฤ 5443
▁WOMEN 5444
▁ไล่ 5445
▁PUSAT 5446
▁ชิ 5447
▁ДЕЛО 5448
แป 5449
ساب 5450
ANGKAN 5451
قدم 5452
ПАД 5453
▁trai 5454
บาย 5455
▁SEMAKIN 5456
▁السورية 5457
▁まだ 5458
ظل 5459
▁COMING 5460
然 5461
▁ทุ 5462
حكومة 5463
9 5464
فكر 5465
▁nằm 5466
▁WATCH 5467
ตาย 5468
ЗНАЧ 5469
طالب 5470
▁SEDIKIT 5471
ティ 5472
▁ฆ่า 5473
ИРОВ 5474
▁long 5475
▁ยาว 5476
ГОВОРИЛ 5477
LOCK 5478
WORD 5479
▁حول 5480
MENGU 5481
RIAN 5482
ード 5483
HIS 5484
КАМИ 5485
▁ใกล้ 5486
غر 5487
▁الإسرائيلي 5488
健 5489
وصل 5490
ПОЭТОМУ 5491
▁الحر 5492
НИКОВ 5493
ИТЕЛИ 5494
ิง 5495
يخ 5496
้อย 5497
▁МОГ 5498
▁ลูกสาว 5499
▁TIBA 5500
▁căn 5501
▁ТЕХ 5502
▁اله 5503
▁แล้ 5504
ДАЛ 5505
تين 5506
▁thầy 5507
АЦИЯ 5508
ЕЛ 5509
НЕС 5510
▁MUST 5511
口 5512
康 5513
ギ 5514
替 5515
▁คา 5516
ДЕН 5517
▁АВТО 5518
▁MEANS 5519
▁CHILDREN 5520
▁بن 5521
HKAN 5522
▁ตะ 5523
وث 5524
置 5525
THESE 5526
▁vàng 5527
▁فيما 5528
ГРА 5529
▁TRY 5530
▁BANK 5531
صور 5532
ЁР 5533
▁độc 5534
▁nghiên 5535
▁同じ 5536
▁dương 5537
▁الاست 5538
▁QUESTIONS 5539
حتى 5540
USE 5541
MARK 5542
▁لأ 5543
แม 5544
短 5545
▁ПОГОДЕ 5546
另 5547
ข่าว 5548
▁الوقت 5549
СТВЕ 5550
▁الأرض 5551
通 5552
▁ДИ 5553
أصبح 5554
▁tô 5555
مكان 5556
▁BERBEDA 5557
脚 5558
▁SURABAYA 5559
▁警察 5560
MISALNYA 5561
▁НИКОГДА 5562
▁หรือไม่ 5563
跳 5564
زال 5565
▁hữu 5566
ПЫ 5567
ЖАЛ 5568
▁BRING 5569
変 5570
▁xét 5571
▁うん 5572
OVER 5573
呼 5574
ขวา 5575
▁والت 5576
عادة 5577
招 5578
بيع 5579
▁ANSWER 5580
LAK 5581
ТСЯ 5582
▁СВОЮ 5583
НИЦ 5584
NET 5585
ГАР 5586
▁vẻ 5587
▁ตอนที่ 5588
ثم 5589
▁SISI 5590
SAMPAI 5591
▁tải 5592
▁แหละ 5593
نيا 5594
GANG 5595
▁quê 5596
غرب 5597
▁RUANG 5598
▁นัด 5599
راء 5600
▁phú 5601
▁ô 5602
▁ELSE 5603
かり 5604
▁LAKUKAN 5605
▁แถว 5606
▁ตัด 5607
▁nâng 5608
▁ตําบล 5609
FIL 5610
▁СДЕЛАЛ 5611
VOL 5612
▁sợ 5613
▁MATTER 5614
▁กุ 5615
اسم 5616
▁しか 5617
GUE 5618
▁เข้าใจ 5619
سيطر 5620
毒 5621
▁PRETTY 5622
▁yên 5623
▁ตํา 5624
歩 5625
草 5626
ائم 5627
HASIL 5628
▁MARKET 5629
▁BEN 5630
▁thắng 5631
▁КУПИТЬ 5632
hôm 5633
運 5634
▁TEACH 5635
ác 5636
ภ 5637
ОДИН 5638
余 5639
ИЛАСЬ 5640
AGAR 5641
▁BEKERJA 5642
月 5643
ý 5644
▁กอง 5645
▁PENYE 5646
▁可能 5647
หลวง 5648
策 5649
▁ghi 5650
▁vợ 5651
▁МИНУТ 5652
خص 5653
ừm 5654
SEKARANG 5655
JUGA 5656
MING 5657
مان 5658
TUN 5659
▁ВСЕМ 5660
▁MERASA 5661
ОВО 5662
▁เต็ม 5663
▁لأنه 5664
▁МОГУТ 5665
▁ninh 5666
KY 5667
ABILITY 5668
▁さあ 5669
รณ 5670
▁EFFECT 5671
ける 5672
▁المع 5673
▁FACE 5674
АЮТСЯ 5675
▁cà 5676
▁SELATAN 5677
وري 5678
▁เท่า 5679
▁BERAPA 5680
ICALLY 5681
ДЕСЯТ 5682
取 5683
▁EKS 5684
成 5685
ОЛОГ 5686
غل 5687
НЯТЬ 5688
金 5689
鬼 5690
▁MAKING 5691
▁đọc 5692
▁SOMEONE 5693
ГРУПП 5694
▁THIRTY 5695
▁MENARIK 5696
ДВА 5697
▁ALREADY 5698
▁นาที 5699
▁ยอม 5700
▁ЧАСТЬ 5701
▁مست 5702
ОБЩЕ 5703
▁chồng 5704
شا 5705
索 5706
危 5707
▁xuân 5708
ПУТ 5709
SEM 5710
PEL 5711
خي 5712
博 5713
致 5714
ホ 5715
ราย 5716
ทิ 5717
源 5718
近 5719
ОП 5720
▁chiều 5721
IOUS 5722
▁多く 5723
▁يتم 5724
HAD 5725
▁thú 5726
▁ลิ 5727
ชนะ 5728
้อ 5729
▁trồng 5730
ОТПРАВ 5731
▁viết 5732
ثلاث 5733
ВЕЩ 5734
▁وهي 5735
▁bánh 5736
▁SEGERA 5737
介 5738
قدر 5739
▁MENA 5740
راق 5741
張 5742
▁ภายใน 5743
ضيف 5744
▁ONCE 5745
es 5746
皮 5747
IG 5748
▁lộ 5749
لل 5750
ЧНЫЕ 5751
▁BARANG 5752
よう 5753
▁ขับรถ 5754
▁NON 5755
bi 5756
調 5757
▁แต่ละ 5758
探 5759
▁trách 5760
▁ออกจาก 5761
▁СТОЛ 5762
▁WATER 5763
期 5764
شعب 5765
▁luận 5766
ЕНЫ 5767
▁TANAH 5768
秋 5769
▁感染 5770
違 5771
▁คาด 5772
▁nhé 5773
▁いただき 5774
智 5775
HARAP 5776
▁وإ 5777
週 5778
▁ТОТ 5779
▁cường 5780
▁СВЕТ 5781
TERUTAMA 5782
▁ดีกว่า 5783
▁تم 5784
▁ก่อนหน้านี้ 5785
HARUSNYA 5786
НИЗ 5787
▁حل 5788
DEVELOP 5789
Q 5790
▁nạn 5791
▁BERJALAN 5792
▁đẩy 5793
当 5794
▁محمد 5795
RAMA 5796
يو 5797
TIP 5798
▁huyện 5799
BIR 5800
شد 5801
▁KENDARAAN 5802
▁KECIL 5803
si 5804
ốt 5805
▁TOLD 5806
ây 5807
▁ประตู 5808
前 5809
様 5810
▁情報 5811
▁SORE 5812
انية 5813
ี้ย 5814
巴 5815
▁QUITE 5816
麻 5817
▁xúc 5818
▁thúc 5819
▁場所 5820
JANG 5821
▁状況 5822
ДЕЛЬ 5823
▁OFTEN 5824
抗 5825
بناء 5826
▁ขอให้ 5827
حدث 5828
▁ПРОШЛ 5829
طار 5830
▁関係 5831
IE 5832
ФОН 5833
حسن 5834
▁ONLINE 5835
▁UNIVERSITY 5836
▁よる 5837
PROV 5838
ШЁЛ 5839
堂 5840
婆 5841
▁ผู้ต้องหา 5842
▁ТРАНСПОРТ 5843
▁STOP 5844
واقع 5845
ГОЛОВ 5846
ПРЕЗИДЕНТ 5847
TUNG 5848
▁SPEC 5849
โทษ 5850
▁TUA 5851
▁GENERAL 5852
▁cư 5853
ЛИВ 5854
ВОЗ 5855
妻 5856
ТАН 5857
ГРАД 5858
CUMA 5859
تاريخ 5860
▁แสน 5861
ต่อ 5862
AWAN 5863
ション 5864
▁UTAMA 5865
▁hại 5866
▁mắc 5867
める 5868
恐 5869
抱 5870
CLU 5871
РЕЗ 5872
▁quanh 5873
ДОВ 5874
▁nặng 5875
LEN 5876
طاع 5877
▁KEBIJAKAN 5878
役 5879
▁THOUGH 5880
việc 5881
عر 5882
БИЛ 5883
▁اللي 5884
▁容疑 5885
أخذ 5886
أستاذ 5887
▁ได้ยิน 5888
▁えっ 5889
▁IKUT 5890
ОЗ 5891
▁DEAL 5892
СМЕ 5893
水 5894
ترك 5895
▁นางสาว 5896
TABLE 5897
СКОРО 5898
▁มาถึง 5899
ائل 5900
يلة 5901
▁COMES 5902
▁STUDENTS 5903
▁xuyên 5904
▁giai 5905
فهم 5906
ПРОШУ 5907
▁คนขับ 5908
▁giám 5909
ar 5910
バー 5911
▁ป้า 5912
OC 5913
▁ร่างกาย 5914
МОН 5915
ТЕЛЯ 5916
般 5917
▁vốn 5918
▁REMEMBER 5919
BRO 5920
VIC 5921
▁DAYS 5922
راك 5923
▁MELA 5924
▁問題 5925
▁ho 5926
数 5927
ゴ 5928
▁สวย 5929
ДЕМ 5930
▁うち 5931
▁ภู 5932
WHY 5933
▁ALLOW 5934
SIDE 5935
▁เพิ่ง 5936
قرار 5937
▁เรื่องราว 5938
象 5939
دخل 5940
即 5941
ФУ 5942
КОТОРЫЕ 5943
АКТИВ 5944
لس 5945
رف 5946
▁НРАВИТСЯ 5947
▁必要 5948
▁SOUND 5949
รก 5950
▁PAKAI 5951
وحد 5952
化 5953
PATI 5954
▁DOLLARS 5955
▁chạy 5956
▁SUPER 5957
▁phẩy 5958
ุน 5959
▁FINAL 5960
▁ทุกวัน 5961
▁ร่าง 5962
bởi 5963
▁ДЕЙСТВИТЕЛЬНО 5964
▁STEP 5965
JOHN 5966
БРО 5967
▁khám 5968
ZI 5969
▁SEMUANYA 5970
▁อํา 5971
لديه 5972
▁USING 5973
ザ 5974
RESPON 5975
OLOGI 5976
▁ОБО 5977
享 5978
▁ЗАКОН 5979
▁ИНТЕРНЕТЕ 5980
ốc 5981
لغ 5982
่อน 5983
BR 5984
▁góp 5985
盛 5986
品 5987
▁บางคน 5988
▁一人 5989
ท้าย 5990
▁หลาน 5991
СЛУША 5992
DAYA 5993
▁NAIK 5994
▁女性 5995
เฉ 5996
แพทย์ 5997
КОМП 5998
▁ngon 5999
PENG 6000
横 6001
さい 6002
▁หลังจากที่ 6003
COME 6004
▁ДАЛЬШЕ 6005
▁БИЛЕТ 6006
▁ДОЛЖЕН 6007
ГЕР 6008
▁kiếm 6009
MERA 6010
ИГР 6011
▁MINGGU 6012
مين 6013
▁ไปหา 6014
ماذا 6015
画 6016
球 6017
▁นายก 6018
▁trận 6019
ปก 6020
▁PRESENT 6021
ХВАТ 6022
ЭК 6023
▁続け 6024
▁ổn 6025
▁พัน 6026
KOMUNIKASI 6027
trước 6028
▁IMP 6029
借 6030
款 6031
▁ГОС 6032
ЛОН 6033
▁PROVIDE 6034
КИЕ 6035
КАХ 6036
▁الفلسطيني 6037
概 6038
ИТЕЛЕЙ 6039
КЛАД 6040
▁đứng 6041
ГН 6042
▁الإنسان 6043
▁持っ 6044
СТАВИТЬ 6045
▁SEEN 6046
▁เกี่ยวข้อง 6047
▁lai 6048
PRESS 6049
宣 6050
▁LATER 6051
▁luyện 6052
▁ВЕЧЕР 6053
▁จบ 6054
回 6055
▁lá 6056
否 6057
РАЖ 6058
▁ЖИЗНЬ 6059
▁WRITE 6060
. 6061
▁นคร 6062
ЦЕВ 6063
НК 6064
▁dưỡng 6065
ISTS 6066
ЯТСЯ 6067
FRONT 6068
▁الأسد 6069
▁lỗi 6070
▁TOOK 6071
กิจ 6072
▁MATA 6073
▁РАБОТЫ 6074
СТЫ 6075
ุ่ม 6076
▁ДОЛЖНЫ 6077
BELIAU 6078
حركة 6079
▁最後 6080
割 6081
散 6082
้อม 6083
NGK 6084
▁HOPE 6085
وسط 6086
▁ประธาน 6087
▁STUFF 6088
▁sâu 6089
▁TEAM 6090
عرف 6091
代 6092
▁vân 6093
جمع 6094
▁KEPOLISIAN 6095
▁đẳng 6096
曜 6097
▁АВТОБУС 6098
▁เรียบร้อย 6099
▁ปล 6100
وقد 6101
عين 6102
ائر 6103
▁ГОЛ 6104
▁mã 6105
BANDING 6106
▁一方 6107
công 6108
ساعد 6109
▁ลด 6110
ШИХ 6111
▁TOTAL 6112
MASUK 6113
SEMUA 6114
กระ 6115
UGHT 6116
▁ТЫСЯЧИ 6117
和 6118
▁ích 6119
▁วัย 6120
СПАСИБО 6121
▁โมง 6122
切 6123
▁vượt 6124
ぼ 6125
▁hơi 6126
MBA 6127
▁HAPPENED 6128
コン 6129
EAR 6130
▁СЛОВАМ 6131
حمد 6132
▁RECORD 6133
่ํา 6134
▁أمر 6135
ИРОВАЛ 6136
▁変わ 6137
chỉ 6138
▁thử 6139
bọn 6140
▁miền 6141
▁СЮДА 6142
▁แจ้งความ 6143
mình 6144
▁СВОИ 6145
▁กรณี 6146
▁شخص 6147
▁CONTROL 6148
▁หรอก 6149
▁หลังจากนั้น 6150
ТЕМ 6151
▁少し 6152
ВЕС 6153
ISE 6154
▁REST 6155
▁ทิ้ง 6156
▁НАД 6157
転 6158
ШЛА 6159
▁HOUR 6160
町 6161
舞 6162
▁กล้องวงจรปิด 6163
СКУЮ 6164
ТЕН 6165
▁TERSANGKA 6166
MARI 6167
PET 6168
振 6169
昨 6170
حدود 6171
ده 6172
▁เสื้อ 6173
عتبر 6174
▁SIM 6175
▁SHARE 6176
▁สิบ 6177
SOMETIMES 6178
姿 6179
تابع 6180
▁HISTORY 6181
▁lương 6182
▁مجلس 6183
▁بما 6184
▁BRAIN 6185
▁cải 6186
gh 6187
OTHER 6188
هدف 6189
▁ست 6190
▁PAIN 6191
مرحلة 6192
▁ЭТИХ 6193
双 6194
20 6195
▁SISTEM 6196
茶 6197
▁見え 6198
▁TERLALU 6199
แก่ 6200
▁使っ 6201
▁MEMA 6202
印 6203
صب 6204
ИМИ 6205
КРОВ 6206
▁ที่นี่ 6207
ВИС 6208
▁chắn 6209
ПЯТ 6210
nhiều 6211
▁LOH 6212
IO 6213
▁เพียง 6214
▁SCIENCE 6215
▁sai 6216
ฟ้า 6217
ุ่น 6218
СЕГОДНЯ 6219
▁PROJECT 6220
MBANGAN 6221
▁HATI 6222
▁СРАЗУ 6223
▁กค 6224
▁BILANG 6225
▁kia 6226
ฐาน 6227
▁العراقي 6228
КИЙ 6229
▁ふう 6230
СЛА 6231
КРАС 6232
ВИТ 6233
村 6234
▁الحرب 6235
هما 6236
▁中国 6237
▁đàn 6238
▁PROVINSI 6239
ẩ 6240
▁ТОВАР 6241
chùa 6242
露 6243
▁MENGAKU 6244
▁СКОЛЬКО 6245
▁hư 6246
BALIK 6247
▁さらに 6248
جاء 6249
▁เมตร 6250
التي 6251
列 6252
▁РЕЖИМ 6253
PARA 6254
وى 6255
▁تحت 6256
づ 6257
ذر 6258
như 6259
▁nga 6260
TEMP 6261
▁ADD 6262
พล 6263
▁WALK 6264
▁nghiêm 6265
КРОМЕ 6266
ОБЫ 6267
▁ПЫТА 6268
СЕТ 6269
▁BREAK 6270
РТ 6271
▁vòng 6272
▁เส้น 6273
秘 6274
ШКА 6275
▁tuyển 6276
▁ปล่อย 6277
▁いけ 6278
้ํา 6279
ЛИЗ 6280
เลือด 6281
》 6282
لماذا 6283
INDAH 6284
ВЕН 6285
▁ПРИНЦИПЕ 6286
▁miễn 6287
▁จ่าย 6288
▁楽し 6289
КОЛЬ 6290
▁ВИДЕЛ 6291
ЗДОРОВ 6292
▁COMPANY 6293
▁ТУДА 6294
キャ 6295
ЕНИЕМ 6296
▁NOMOR 6297
▁СТОРОНЫ 6298
ЧКИ 6299
▁SIAP 6300
▁sóc 6301
胡 6302
▁BANDUNG 6303
ГЕН 6304
ДАТЬ 6305
猫 6306
▁nỗ 6307
▁CAUSE 6308
СТВЕННО 6309
LABOR 6310
▁nhiễm 6311
▁BODY 6312
SEBENARNYA 6313
▁الماضي 6314
家 6315
がり 6316
ПРОВОД 6317
目 6318
弄 6319
ЫВАТЬ 6320
合わせ 6321
▁ปรับ 6322
▁СВОЕЙ 6323
cả 6324
▁SPACE 6325
KELOMPOK 6326
▁БЕЛ 6327
▁TANGGAL 6328
▁เนี้ย 6329
▁LAH 6330
▁ウクライナ 6331
▁tai 6332
IFIKASI 6333
▁TRUMP 6334
OUGH 6335
せる 6336
ิบ 6337
▁ПОНИМАЮ 6338
فس 6339
▁МОИ 6340
▁TURUN 6341
ЖЕЛ 6342
▁CHILD 6343
▁thấp 6344
▁وليس 6345
СИМ 6346
GENT 6347
ディ 6348
▁يريد 6349
▁SEA 6350
PLEASE 6351
▁المعارضة 6352
▁しれ 6353
ظاهر 6354
ХОДИЛ 6355
▁BUILDING 6356
族 6357
▁hạnh 6358
▁SOUTH 6359
КТО 6360
SEBAGAI 6361
▁どこ 6362
ЧНЫЙ 6363
▁しかし 6364
ล่ 6365
KOR 6366
أنا 6367
▁ngồi 6368
洋 6369
▁يست 6370
ELE 6371
楼 6372
سبب 6373
▁بالم 6374
▁MILLION 6375
ДОРО 6376
着 6377
▁ปัญหา 6378
▁phản 6379
困 6380
▁tàu 6381
ศึกษา 6382
▁MAKAN 6383
▁lĩnh 6384
วี 6385
ОПЫТ 6386
リア 6387
▁suất 6388
موضوع 6389
応 6390
▁COURT 6391
▁เล็ก 6392
称 6393
▁أجل 6394
▁ほう 6395
▁МЕСЯЦ 6396
ПОНЯТ 6397
ГОРОД 6398
▁STAND 6399
触 6400
▁نفسه 6401
▁ทีวี 6402
▁まあ 6403
خلي 6404
▁DISEBUT 6405
▁ตลาด 6406
▁thủy 6407
▁منها 6408
▁hút 6409
NDUNG 6410
ЗР 6411
▁الدولي 6412
▁المجتمع 6413
▁КРАСИВ 6414
▁ทัน 6415
混 6416
▁นั่นแหละ 6417
▁bổ 6418
寒 6419
▁AGO 6420
قوم 6421
▁СОВЕТ 6422
▁جديد 6423
เฟ 6424
САН 6425
▁SAT 6426
▁NOTHING 6427
飛 6428
КУРС 6429
▁nha 6430
▁ครั้งนี้ 6431
森 6432
ヤ 6433
▁ARM 6434
دفع 6435
▁ДВУХ 6436
ru 6437
▁POLITICAL 6438
▁ДРУГИХ 6439
▁MENANG 6440
ễ 6441
▁chả 6442
KUL 6443
УКРАИН 6444
BELAJAR 6445
▁MINUTE 6446
▁УЛИЦЕ 6447
頭 6448
▁ưu 6449
مشروع 6450
▁СЛОВАРЬ 6451
АТОР 6452
ستطيع 6453
تعامل 6454
LUM 6455
جلس 6456
▁SATUNYA 6457
信 6458
▁発表 6459
ТРУД 6460
▁SUN 6461
ИНГ 6462
▁一番 6463
AFTER 6464
充 6465
▁พื้น 6466
▁cơm 6467
ЕНИЙ 6468
ПРАВИЛ 6469
▁thơ 6470
▁มากกว่า 6471
赤 6472
▁lựa 6473
▁ВСЯ 6474
▁PERSEN 6475
▁МАК 6476
言 6477
▁КУДА 6478
▁ยืน 6479
▁trải 6480
VARI 6481
▁MAKES 6482
▁BAGUS 6483
ื 6484
ัช 6485
ДВИЖ 6486
冲 6487
▁tín 6488
▁TENTUNYA 6489
▁MENGALAMI 6490
▁NATIONAL 6491
▁๑๙ 6492
ศักดิ์ 6493
▁SAMPAIKAN 6494
سمع 6495
▁FUTURE 6496
▁ЗНАЕТЕ 6497
ืน 6498
▁SUARA 6499
ธา 6500
MASIH 6501
善 6502
▁หาก 6503
▁ถือ 6504
▁HEARD 6505
▁والأ 6506
▁一緒 6507
อยู่ 6508
FFE 6509
問 6510
ПОМНИ 6511
味 6512
thời 6513
▁lạnh 6514
▁THINKING 6515
▁どんな 6516
そう 6517
▁EVENT 6518
▁لهم 6519
▁อย่างไร 6520
كيف 6521
АЙТЕ 6522
ТАР 6523
صحيح 6524
РОН 6525
ไทย 6526
▁PERIOD 6527
DEP 6528
ПЯТЬ 6529
عسكري 6530
วก 6531
▁ràng 6532
▁УЛИЦЫ 6533
▁PAGE 6534
РАСТ 6535
▁ACROSS 6536
港 6537
▁確認 6538
PASTI 6539
勢 6540
ПРЕДЕЛ 6541
NOR 6542
УЕТ 6543
▁МЕЖДУ 6544
НАПРАВЛЕН 6545
صدر 6546
▁giác 6547
▁thiệu 6548
▁จากนั้น 6549
甚 6550
▁影響 6551
MESKI 6552
LIP 6553
▁الآخر 6554
أيضا 6555
▁กลายเป็น 6556
IRAN 6557
▁WAYS 6558
IZED 6559
thực 6560
意 6561
تل 6562
▁TANGAN 6563
СОГЛАС 6564
▁ВЫХОД 6565
升 6566
▁DIBERIKAN 6567
▁ВМЕСТЕ 6568
▁先生 6569
WAI 6570
▁ВЕДЬ 6571
▁MENYATAKAN 6572
売 6573
▁bí 6574
▁quen 6575
▁khán 6576
▁ليست 6577
แล้ว 6578
▁kéo 6579
▁đảo 6580
rồi 6581
ЛОМ 6582
▁FULL 6583
ลี 6584
▁MAKANAN 6585
ẻ 6586
▁PENGE 6587
TEK 6588
▁tránh 6589
爆 6590
端 6591
lo 6592
▁OPERA 6593
▁UNITED 6594
СЕЛ 6595
▁المر 6596
▁الإيراني 6597
括 6598
mỗi 6599
▁WITHIN 6600
БЕЖ 6601
熊 6602
ومن 6603
КАКИЕ 6604
登 6605
嘴 6606
KARENA 6607
BET 6608
เดียว 6609
▁ที่เกิดเหตุ 6610
▁สวน 6611
▁HADIR 6612
▁tộc 6613
▁หนุ่ม 6614
КРУГ 6615
▁POST 6616
▁よっ 6617
ARTI 6618
ロー 6619
▁hồng 6620
năm 6621
▁ครับผม 6622
▁فإن 6623
▁tuyệt 6624
ざ 6625
ゆ 6626
cũng 6627
▁RAKYAT 6628
負 6629
▁MENUJU 6630
ใช้ 6631
حقوق 6632
▁ちゃっ 6633
ТУП 6634
▁ДЕНЬГИ 6635
▁ดัง 6636
ХОДИТЬ 6637
سان 6638
NAMA 6639
RIC 6640
▁ОНО 6641
▁ДВОР 6642
▁ИНСТИТУТА 6643
يون 6644
POSITION 6645
NAN 6646
▁PEKERJA 6647
▁POSITIF 6648
▁ОДНА 6649
ぞ 6650
▁إنه 6651
融 6652
СУТ 6653
▁العمل 6654
▁ยิ่ง 6655
НРАВ 6656
▁السابق 6657
سأل 6658
▁ชม 6659
ngoài 6660
เสีย 6661
秀 6662
MISSION 6663
▁ủy 6664
▁ปุ๊บ 6665
▁เท่านั้น 6666
▁ปู 6667
برا 6668
al 6669
▁الواقع 6670
▁ЗАЯВИЛ 6671
▁ชั่วโมง 6672
▁ที่ว่า 6673
▁БОЛЬ 6674
БРАТЬ 6675
▁СЛУЧАЕ 6676
骨 6677
チャ 6678
岡 6679
▁しっかり 6680
▁บรรยากาศ 6681
▁BAHAS 6682
▁おり 6683
أميركا 6684
▁САМОЕ 6685
▁หมู่บ้าน 6686
▁chết 6687
st 6688
季 6689
السلام 6690
▁TRUE 6691
▁đáp 6692
▁รู้จัก 6693
МНОГИЕ 6694
唱 6695
TARI 6696
航 6697
WALAUPUN 6698
▁đảng 6699
▁BASE 6700
▁ย่า 6701
LAP 6702
▁ОСНОВ 6703
НУТЬ 6704
DITA 6705
▁จึง 6706
СПОСОБ 6707
▁PUTRI 6708
هناك 6709
МЕНЯ 6710
▁ลูกค้า 6711
FLE 6712
КОЕ 6713
▁事件 6714
▁คนใน 6715
▁dư 6716
▁НАЙТИ 6717
治 6718
▁MUDA 6719
جمهور 6720
RID 6721
ULANG 6722
サ 6723
熱 6724
▁إل 6725
õ 6726
ปฏิบัติ 6727
▁いつ 6728
雷 6729
▁รีบ 6730
▁MODEL 6731
▁ออ 6732
▁HEART 6733
▁ทาน 6734
ДИН 6735
▁BERGABUNG 6736
ЛОГ 6737
帰 6738
▁WORDS 6739
向 6740
律 6741
ЕЛИ 6742
ANGGUNG 6743
SURE 6744
▁MENYAMPAIKAN 6745
EVERY 6746
DIR 6747
▁LEMBAGA 6748
تقدم 6749
СОЗДА 6750
▁WONDER 6751
▁ALMOST 6752
MEL 6753
▁VIRUS 6754
khu 6755
จังหวะ 6756
▁ЕВРО 6757
▁ทุกอย่าง 6758
UMBU 6759
СИД 6760
▁ТРИДЦАТЬ 6761
▁ASKED 6762
▁ระยะ 6763
解 6764
▁sơ 6765
▁ด่า 6766
ЧЁТ 6767
▁بأنه 6768
▁gồm 6769
▁DEEP 6770
دار 6771
بو 6772
▁sông 6773
園 6774
ЗДЕСЬ 6775
เหน 6776
ТОЛЬКО 6777
▁วาง 6778
▁coi 6779
▁soát 6780
▁ИНТЕРЕСНО 6781
QUA 6782
UKAN 6783
▁PERUSAHAAN 6784
▁VOTE 6785
▁ВКУС 6786
▁รถจักรยานยนต์ 6787
▁MEMBA 6788
ョ 6789
▁РУБЛЕЙ 6790
套 6791
▁PERSONAL 6792
▁初めて 6793
▁WASN 6794
▁ねえ 6795
▁มะ 6796
▁ชัดเจน 6797
إدارة 6798
▁الكثير 6799
▁DURING 6800
▁SELESAI 6801
▁ถูกต้อง 6802
▁ТЫСЯЧА 6803
ДУШ 6804
▁ATURAN 6805
RATION 6806
حص 6807
▁HAPPEN 6808
MUS 6809
เท้า 6810
▁ЧЕЛОВЕКА 6811
▁ПОСМОТРЕТЬ 6812
▁KHUSUS 6813
đi 6814
ПРИВЕТ 6815
▁LAPANGAN 6816
ЕНТ 6817
GEL 6818
視 6819
رئيس 6820
สังคม 6821
▁ليبيا 6822
ั่ง 6823
牌 6824
床 6825
▁CONTINUE 6826
▁اليمني 6827
ลูก 6828
▁VISI 6829
▁だろう 6830
วร 6831
▁dõi 6832
ФРАНЦ 6833
▁lí 6834
▁biên 6835
▁giây 6836
▁SURAT 6837
▁bá 6838
ปี 6839
ทหาร 6840
▁quần 6841
折 6842
ПЕН 6843
СКАЖИ 6844
▁ああ 6845
▁may 6846
จ้าง 6847
▁สู้ 6848
震 6849
ี่ยว 6850
عيش 6851
▁ยาย 6852
記 6853
▁KORUPSI 6854
JAH 6855
▁الوضع 6856
▁ОТВЕТ 6857
▁FIFTY 6858
▁giấy 6859
▁СОБОЙ 6860
▁ДРУГОЙ 6861
▁thăm 6862
達 6863
HARUS 6864
INILAH 6865
▁PAST 6866
▁NORMAL 6867
CHAR 6868
ЕННЫЙ 6869
lu 6870
ヒ 6871
▁引き 6872
▁واحد 6873
▁ยอมรับ 6874
شاهد 6875
▁แยก 6876
▁СИЛЬНО 6877
▁มีปัญหา 6878
▁БОГ 6879
▁BILL 6880
ЧКА 6881
NED 6882
ПРОИЗВОД 6883
▁ห้า 6884
TRIBU 6885
▁ЧАСТО 6886
▁คุณพ่อ 6887
原 6888
▁VALUE 6889
BRE 6890
▁LEAST 6891
ạch 6892
▁FUN 6893
▁hè 6894
ОСЬ 6895
▁ДОВОЛЬНО 6896
NTAR 6897
جان 6898
吸 6899
РИС 6900
▁kì 6901
▁ПРОЦЕНТОВ 6902
ائد 6903
hay 6904
▁INTERESTING 6905
▁ОПЯТЬ 6906
▁مثلا 6907
際 6908
ũ 6909
副 6910
▁ALLAH 6911
إقليم 6912
▁ДРУГИЕ 6913
▁ОТМЕТИЛ 6914
▁الدكتور 6915
幅 6916
▁vai 6917
速 6918
暴 6919
خبر 6920
ULA 6921
▁AGAK 6922
▁tù 6923
▁ПРЯМО 6924
BARU 6925
▁多い 6926
▁ประชา 6927
占 6928
ЫМИ 6929
嫌 6930
بحث 6931
両 6932
▁RESULT 6933
免 6934
施 6935
– 6936
▁БАР 6937
▁YU 6938
▁MENCAPAI 6939
PEMERINTAH 6940
▁DIGITAL 6941
冬 6942
▁ประกาศ 6943
ải 6944
DAK 6945
▁対し 6946
tất 6947
▁หยุด 6948
▁DEATH 6949
ОБРАЗ 6950
▁núi 6951
صراع 6952
EVERYBODY 6953
وكان 6954
DAL 6955
▁RP 6956
▁MEMBAWA 6957
KAM 6958
▁dần 6959
ЯТЬ 6960
▁BALI 6961
レン 6962
▁พร้อมกับ 6963
▁ขณะที่ 6964
นัน 6965
ตรี 6966
▁chữa 6967
▁เกม 6968
▁tầm 6969
RUM 6970
▁الحلقة 6971
▁まま 6972
章 6973
▁cũ 6974
熟 6975
▁ไก่ 6976
▁MEMBANTU 6977
КУС 6978
▁MYSELF 6979
MAKSUD 6980
倍 6981
▁ติดต่อ 6982
▁DIGUNAKAN 6983
ATIVE 6984
リン 6985
▁気温 6986
انتخاب 6987
▁КРА 6988
権 6989
▁เมีย 6990
▁MEMINTA 6991
MBAK 6992
JAN 6993
▁HAK 6994
REL 6995
ฐ 6996
▁คนอื่น 6997
▁СВОЙ 6998
ظهر 6999
▁ผู้เสียชีวิต 7000
法 7001
ลุก 7002
راب 7003
▁CHECK 7004
▁đứa 7005
秒 7006
▁ช่วงนี้ 7007
▁МОЕГО 7008
▁الموضوع 7009
▁كنت 7010
จีน 7011
▁ПЕСНИ 7012
寄 7013
แข็ง 7014
▁PUKUL 7015
▁PENDIDIKAN 7016
hầu 7017
لأن 7018
▁ПАРК 7019
ЛИК 7020
▁มีด 7021
込 7022
شعر 7023
▁ยังคง 7024
▁ОБЩЕМ 7025
▁男性 7026
▁lắng 7027
▁ちゃう 7028
▁MANAGE 7029
DUDUK 7030
▁เตือน 7031
▁ngữ 7032
刺 7033
▁ТЕЛЕФОН 7034
かし 7035
▁แม้ 7036
علاقة 7037
▁จนถึง 7038
عارض 7039
LIE 7040
MANFAAT 7041
NIK 7042
雨 7043
ni 7044
▁ง่าย 7045
▁อดีต 7046
OPERASI 7047
▁มอบ 7048
▁ขอบคุณ 7049
▁試合 7050
▁เนื้อ 7051
▁更に 7052
▁GOES 7053
НАЗЫВА 7054
まる 7055
▁أقول 7056
▁昨日 7057
МИНИСТР 7058
▁РЕАЛЬНО 7059
▁الإعلام 7060
▁НАЗАД 7061
كاف 7062
ฆ 7063
殺 7064
▁BERHARAP 7065
mùa 7066
يرة 7067
يران 7068
▁MUSIC 7069
▁TITIK 7070
UC 7071
哭 7072
UJI 7073
▁CHRIST 7074
▁好き 7075
買 7076
CHO 7077
▁ПЕРВЫЙ 7078
bu 7079
恋 7080
▁ALAT 7081
誰 7082
ne 7083
▁vay 7084
تحالف 7085
راد 7086
▁sắp 7087
ิ่ง 7088
▁FOOD 7089
▁อี 7090
▁ตอนแรก 7091
▁ทนาย 7092
終 7093
▁ОДНОЙ 7094
سك 7095
▁chấp 7096
se 7097
بير 7098
▁МЕД 7099
ائية 7100
▁HALF 7101
▁SHORT 7102
▁HIT 7103
▁SESUATU 7104
末 7105
▁الآ 7106
▁กรุงเทพ 7107
▁ПУТИ 7108
▁MACAM 7109
▁ต้องการ 7110
申 7111
告 7112
▁กี่ 7113
URUS 7114
▁FOCUS 7115
▁mật 7116
▁COST 7117
▁JAWAB 7118
氏 7119
団 7120
ليس 7121
▁GUYS 7122
تحقيق 7123
▁FILM 7124
▁الثاني 7125
PERCAYA 7126
ВЫЙ 7127
▁ХОЧЕТ 7128
THANKS 7129
z 7130
▁trì 7131
▁大会 7132
ประชุม 7133
▁EXACT 7134
▁TNI 7135
豆 7136
re 7137
渡 7138
فتح 7139
心 7140
▁チーム 7141
ri 7142
برنامج 7143
طلق 7144
央 7145
▁หน้าที่ 7146
▁แตก 7147
▁MENJAGA 7148
▁САМЫЕ 7149
سياسة 7150
СПОРТ 7151
▁ขึ้นไป 7152
▁НИКТО 7153
▁SAKSI 7154
▁ข้อหา 7155
▁YOURSELF 7156
▁ANIES 7157
▁KETIGA 7158
脱 7159
▁MAG 7160
قاتل 7161
顔 7162
▁PASIEN 7163
▁kim 7164
▁もん 7165
DEMIKIAN 7166
▁đỏ 7167
伴 7168
▁МОЕЙ 7169
نعم 7170
語 7171
▁tả 7172
WAH 7173
نز 7174
計 7175
جامع 7176
士 7177
EC 7178
▁作っ 7179
▁تقول 7180
カー 7181
ГРУЗ 7182
باب 7183
▁ทั้งสอง 7184
ISME 7185
▁現在 7186
▁chiếu 7187
سلط 7188
▁ให้ได้ 7189
巨 7190
DINA 7191
РЕЙ 7192
ОБЫЧНО 7193
▁MENYEBUT 7194
▁EARLY 7195
▁FIT 7196
▁ВЗ 7197
ПАС 7198
فال 7199
ХОДЯТ 7200
吉 7201
▁MENINGGAL 7202
ょう 7203
悪 7204
CED 7205
▁phóng 7206
iều 7207
ОВАТЬ 7208
LAWAN 7209
裁 7210
授 7211
▁TYPE 7212
ЧИК 7213
ПАН 7214
TIGA 7215
▁เขต 7216
hàng 7217
ARCH 7218
АЕШЬ 7219
لاف 7220
ょ 7221
核 7222
域 7223
▁mộ 7224
▁КОНЦЕ 7225
▁STAY 7226
▁lãnh 7227
شع 7228
シャ 7229
▁КАФЕ 7230
ОТЛИЧ 7231
te 7232
PEMBE 7233
▁始め 7234
لام 7235
▁KENA 7236
▁分かり 7237
▁thảo 7238
صلاح 7239
▁SERIBU 7240
▁สี่ 7241
藏 7242
РЕБЯТ 7243
▁FIGURE 7244
đã 7245
▁SUP 7246
▁มหา 7247
▁KIDS 7248
MBAH 7249
▁الإرهاب 7250
GIL 7251
▁mơ 7252
▁สาเหตุ 7253
▁ครึ่ง 7254
▁เพิ่มเติม 7255
▁MAJOR 7256
▁結構 7257
▁TINGKAT 7258
▁SINGLE 7259
▁tỏ 7260
▁kỷ 7261
収 7262
▁言わ 7263
ผิด 7264
ướng 7265
CIR 7266
ШЕН 7267
▁สวัสดี 7268
đấy 7269
▁KAPAL 7270
ВОСПРОИЗВЕД 7271
斗 7272
梅 7273
ร่วม 7274
ВРЕМЕН 7275
UE 7276
▁WORKS 7277
▁كبيرة 7278
▁القانون 7279
延 7280
▁cân 7281
▁KNEW 7282
TAU 7283
ПРЕСС 7284
▁PASAL 7285
ЧЕН 7286
ICE 7287
▁مش 7288
تحديد 7289
▁khắc 7290
一 7291
LEY 7292
ربما 7293
▁ПЛОЩАД 7294
HINGGA 7295
sự 7296
فقد 7297
設 7298
▁ช่อง 7299
▁เสนอ 7300
▁FRIEND 7301
▁ТАКИХ 7302
▁ПОЛУЧИЛ 7303
▁WRONG 7304
▁สื่อ 7305
▁AMERIKA 7306
▁WON 7307
▁الأول 7308
▁TUGAS 7309
▁ДНЯ 7310
MAKANYA 7311
ADE 7312
▁НЕМЕЦКИЙ 7313
ШЕСТЬ 7314
HOWEVER 7315
СКИМ 7316
刀 7317
▁thao 7318
▁thụ 7319
BEGITU 7320
سار 7321
va 7322
▁สถานการณ์ 7323
СТЕЙ 7324
▁ระดับ 7325
ЩУ 7326
فريق 7327
ศพ 7328
МАЛЕНЬК 7329
ЫВАЮТ 7330
บังคับ 7331
▁DESIGN 7332
実 7333
▁TELE 7334
HUR 7335
粉 7336
▁lê 7337
▁ВАЖНО 7338
▁จิ 7339
▁الأمور 7340
宮 7341
روا 7342
▁ISLAM 7343
唐 7344
▁أوباما 7345
益 7346
▁おいしい 7347
ТЕЛИ 7348
帝 7349
▁พูดคุย 7350
▁kho 7351
▁УНИВЕРСИТЕТА 7352
▁でしょ 7353
▁عدد 7354
挑 7355
▁الإسلامية 7356
GRI 7357
▁العسكرية 7358
กาย 7359
▁MOTOR 7360
束 7361
BOL 7362
КВАРТИР 7363
▁หมู 7364
▁ОБЛАСТИ 7365
ЖАР 7366
đồng 7367
▁POSSIBLE 7368
ستخدم 7369
▁ФАКТ 7370
▁しまう 7371
mọi 7372
CONF 7373
▁CONVERSATION 7374
▁CONCERN 7375
▁SERING 7376
▁sạch 7377
含 7378
مه 7379
▁cử 7380
▁พูดถึง 7381
وش 7382
DIRECT 7383
ーズ 7384
愛 7385
奥 7386
▁ДЕВЯТЬСОТ 7387
▁TERMS 7388
HAP 7389
ЦИЙ 7390
เตอร์ 7391
▁ngôi 7392
▁НАШИ 7393
▁ЖЕНЩИН 7394
▁ตกลง 7395
HARGA 7396
▁ПОДО 7397
▁LEADER 7398
▁気持ち 7399
▁xấu 7400
▁เร็ว 7401
▁НЕЁ 7402
▁dấu 7403
مواطن 7404
▁หมา 7405
▁สอบสวน 7406
BIASA 7407
▁SELF 7408
▁khởi 7409
งาม 7410
▁SUKA 7411
▁ТОЧНО 7412
WORK 7413
しゃ 7414
▁FLA 7415
me 7416
▁ЛИШЬ 7417
▁thất 7418
▁สอน 7419
▁hấp 7420
EMANG 7421
JALAN 7422
ANGGAP 7423
▁lâm 7424
▁cập 7425
ДЛЯ 7426
▁kê 7427
封 7428
▁جديدة 7429
飲 7430
▁กู้ภัย 7431
返 7432
▁dạng 7433
KHAWATIR 7434
▁ช่วยกัน 7435
▁仕事 7436
▁FAN 7437
▁ดวง 7438
▁ДЕСЯТЬ 7439
▁بهذا 7440
مستقبل 7441
▁MENCARI 7442
▁会社 7443
▁大きな 7444
込み 7445
届 7446
魔 7447
МОЛ 7448
▁КОТОРЫХ 7449
▁nối 7450
▁STRONG 7451
سلح 7452
▁นึก 7453
ッチ 7454
КАКУЮ 7455
▁mại 7456
СЛЕДУ 7457
СЛЫШ 7458
BALL 7459
▁ВЕСЬ 7460
叶 7461
▁РЕШИЛ 7462
la 7463
害 7464
▁لنا 7465
▁STAR 7466
จร 7467
迷 7468
DEPEND 7469
覚 7470
يدة 7471
掌 7472
▁ЭКС 7473
СЕМЬ 7474
▁ศูนย์ 7475
シュ 7476
減 7477
▁MERE 7478
宇 7479
▁KILL 7480
▁FRIENDS 7481
▁INDIVIDUAL 7482
▁ВТОРОЙ 7483
CONNECT 7484
▁ЦЕЛОМ 7485
فتر 7486
رام 7487
ENCY 7488
▁LIVES 7489
▁JALUR 7490
利 7491
架 7492
▁MENU 7493
▁АНГЛИЙСКОМ 7494
安 7495
СЕР 7496
厚 7497
ОВЫЕ 7498
PUNG 7499
แบบ 7500
▁ДОБАВЬ 7501
BACA 7502
▁ПЯТЬДЕСЯТ 7503
▁CENTER 7504
FIELD 7505
ПОСЛЕ 7506
▁六十 7507
▁РАВНО 7508
▁ห้าม 7509
▁ИМЕЕТ 7510
BAYAR 7511
โทรศัพท์ 7512
▁СООБЩИЛ 7513
▁場合 7514
ЛЕЙ 7515
▁giang 7516
▁すごく 7517
КОП 7518
AWAL 7519
ДЕРЖИ 7520
▁NINETEEN 7521
▁thưởng 7522
▁ГОВОРИТ 7523
▁แค 7524
▁あなた 7525
TINGGI 7526
▁لإ 7527
МЕЛ 7528
▁LANGUAGE 7529
MOST 7530
▁JOIN 7531
حظ 7532
وزير 7533
▁СОРОК 7534
ВОСЕМЬ 7535
▁ngọc 7536
▁ポイント 7537
優 7538
PRODUCE 7539
▁ไม่ค่อย 7540
▁DOKTER 7541
▁FORTY 7542
▁FEELING 7543
رحم 7544
ЁЛ 7545
▁เสา 7546
▁มุ 7547
射 7548
بدا 7549
พระ 7550
MINE 7551
▁DECISION 7552
▁SEHAT 7553
bây 7554
le 7555
عمليات 7556
▁ずっと 7557
ЧЕТЫРЕ 7558
操 7559
▁nhắc 7560
職 7561
▁СУЩЕСТВ 7562
▁全国 7563
เรีย 7564
BERSIH 7565
АЛЬНЫЙ 7566
楽 7567
أكثر 7568
▁tịch 7569
PRESIDEN 7570
وجد 7571
彩 7572
BICARA 7573
ПОРТ 7574
▁dầu 7575
▁องค์ 7576
CANG 7577
ราชการ 7578
▁STUDY 7579
▁อิน 7580
▁tội 7581
▁chờ 7582
VIN 7583
RINGAN 7584
ЕННЫХ 7585
سائل 7586
▁ЧУВСТВ 7587
đối 7588
ЛЯТЬ 7589
▁เพชร 7590
▁НЕМНОГО 7591
НИЦА 7592
▁trần 7593
РЕЗУЛЬТАТ 7594
▁سياسية 7595
chính 7596
شرك 7597
▁chỉnh 7598
АРМ 7599
▁ขาว 7600
▁НЕДЕЛЮ 7601
個 7602
辛 7603
▁COUPLE 7604
ศาสตร์ 7605
قانون 7606
▁КОМНАТ 7607
حسب 7608
قليل 7609
ЕМСЯ 7610
▁США 7611
▁เลิก 7612
▁คนเดียว 7613
▁НЕМЕЦКОМ 7614
ФОР 7615
▁NINE 7616
▁เชิญ 7617
検 7618
バイ 7619
▁LEAVE 7620
ويت 7621
สัตว์ 7622
▁FORCE 7623
▁BANGSA 7624
戻 7625
▁นท 7626
▁大統領 7627
▁يتعلق 7628
▁PARTICULAR 7629
▁phối 7630
で 7631
▁ดอก 7632
▁โดยเฉพาะ 7633
▁ว่าการ 7634
▁سواء 7635
▁KUAT 7636
ائي 7637
▁СЕВЕР 7638
ДЕВЯТЬ 7639
ПРОДУКТ 7640
أهل 7641
▁คุณยาย 7642
▁FELT 7643
СЛУЖБ 7644
▁MOTHER 7645
▁ЧАСОВ 7646
▁ซ้าย 7647
▁GUY 7648
▁ПОМОЩЬ 7649
▁ใต้ 7650
▁ข้อความ 7651
وخ 7652
▁FATHER 7653
ИВАЕТ 7654
▁МОЖЕТЕ 7655
พิเศษ 7656
値 7657
▁ผู้เสียหาย 7658
ثق 7659
葉 7660
SELANJUTNYA 7661
▁LIVING 7662
▁AKHIR 7663
▁กล้า 7664
▁МЕСТЕ 7665
طريقة 7666
▁とも 7667
dù 7668
МОЛОД 7669
▁EDUCATION 7670
ั่ว 7671
っと 7672
▁chợ 7673
▁มุม 7674
▁UTARA 7675
▁ครบ 7676
ННЫЕ 7677
▁ТОБОЙ 7678
ЭР 7679
▁ПОМОГ 7680
صورة 7681
سام 7682
▁人気 7683
制 7684
▁EXIST 7685
結 7686
▁THEMSELVES 7687
về 7688
▁ที่วัด 7689
▁บางที 7690
▁BERHASIL 7691
МЕНТ 7692
▁ISN 7693
質 7694
روف 7695
▁よろしく 7696
▁BANTUAN 7697
▁ตกใจ 7698
▁ТАКИМ 7699
ناقش 7700
▁المدن 7701
▁đón 7702
▁PENUMPANG 7703
▁BERAT 7704
▁СТРАНЫ 7705
▁รอย 7706
逆 7707
▁COMMON 7708
СКОЕ 7709
彼 7710
姓 7711
▁DECIDE 7712
HIN 7713
題 7714
▁غزة 7715
ЕНИЮ 7716
▁コロナ 7717
GENERA 7718
▁BANGET 7719
▁KATAKAN 7720
▁บริษัท 7721
HOP 7722
SAUDARA 7723
▁พนักงาน 7724
▁ГОРОДЕ 7725
▁БЛАГО 7726
عندما 7727
▁KOMISI 7728
▁AGREE 7729
แต 7730
▁ЗАКАЗ 7731
▁khóa 7732
▁子ども 7733
療 7734
▁عنه 7735
HITUNG 7736
ОВОЙ 7737
ИРУЕТ 7738
▁มีโอกาส 7739
CONTOH 7740
▁tim 7741
疫 7742
СТРЕЛ 7743
▁تست 7744
▁ควบคุม 7745
▁กิ 7746
НОВОСИБИРСК 7747
▁PIECE 7748
▁ทุ่ม 7749
ЗЕР 7750
▁mẫu 7751
色 7752
00 7753
ولي 7754
VAN 7755
▁gió 7756
▁午後 7757
بغ 7758
こう 7759
▁INCLUDE 7760
MAU 7761
▁tướng 7762
حتاج 7763
็บ 7764
КОМАНД 7765
บุคคล 7766
▁ยาก 7767
▁時代 7768
NOVA 7769
▁RELATIONSHIP 7770
РУБ 7771
▁ТАКОГО 7772
▁ISSUE 7773
▁CERTAIN 7774
▁API 7775
▁BADAN 7776
▁RISK 7777
▁NORTH 7778
▁เกือบ 7779
SEBAGIAN 7780
HOL 7781
▁HIMSELF 7782
MESKIPUN 7783
▁БИЗНЕС 7784
КОС 7785
▁見せ 7786
OX 7787
▁ぶり 7788
かい 7789
ЗОН 7790
▁PERJALANAN 7791
黒 7792
فض 7793
▁tệ 7794
ИЛОСЬ 7795
تغيير 7796
ITULAH 7797
▁นับ 7798
إنما 7799
甘 7800
暗 7801
増 7802
術 7803
АЛАСЬ 7804
▁الدولية 7805
ФЕР 7806
▁ISU 7807
▁الفلسطينية 7808
▁SELA 7809
▁bò 7810
幕 7811
خير 7812
▁ค่อนข้าง 7813
迫 7814
علن 7815
ПРОБ 7816
▁СВОИМ 7817
ОКАЗЫВА 7818
▁INSIDE 7819
▁DIFFICULT 7820
働 7821
▁KPU 7822
▁MEMILIH 7823
▁dòng 7824
▁FIGHT 7825
▁ACTION 7826
▁СОВСЕМ 7827
▁giản 7828
UNJUK 7829
EAST 7830
ИЗМ 7831
革 7832
▁LINGKUNGAN 7833
▁FORWARD 7834
▁เนื่องจาก 7835
LAU 7836
▁ФРАНЦУЗСКОГО 7837
▁phê 7838
▁GLOBAL 7839
ТВОР 7840
▁ДОЛГО 7841
▁TAKING 7842
▁รวมถึง 7843
▁เปิดเผย 7844
▁PIKIR 7845
สถาน 7846
▁БУДЕМ 7847
JER 7848
▁sửa 7849
▁ALONG 7850
علاقات 7851
▁อิ 7852
ЛАН 7853
▁nghi 7854
路 7855
ếu 7856
АМЕРИКАН 7857
▁FIRE 7858
▁LAUT 7859
تحول 7860
MILI 7861
ESPECIALLY 7862
▁МОЖЕШЬ 7863
▁去年 7864
▁ولم 7865
ضرب 7866
▁起き 7867
暖 7868
▁SITUASI 7869
▁tấn 7870
ПРОГРАММ 7871
▁เท่าไหร่ 7872
▁СВОИХ 7873
▁МАЛО 7874
過 7875
▁MONTHS 7876
▁mối 7877
chị 7878
▁DOOR 7879
ГАН 7880
▁เดียวกัน 7881
▁ТИПА 7882
▁WOMAN 7883
▁พี่น้อง 7884
▁ЭТОМУ 7885
الآن 7886
▁tặng 7887
付 7888
▁ПОНЯЛ 7889
▁อุบัติเหตุ 7890
كتاب 7891
▁НОВОСТИ 7892
ИЧНО 7893
ПРОДОЛЖА 7894
▁ПОЛУЧАЕТСЯ 7895
作 7896
كبر 7897
▁อนุ 7898
or 7899
▁ПЯТИ 7900
▁BECAME 7901
YOUR 7902
▁นุ 7903
▁NEAR 7904
PADAHAL 7905
▁thận 7906
▁tân 7907
郎 7908
وص 7909
▁تريد 7910
ОБЩЕСТВЕНН 7911
▁MANUSIA 7912
СТОР 7913
▁เมา 7914
▁وعلى 7915
▁เจ็บ 7916
▁ボール 7917
▁trao 7918
午 7919
▁ơi 7920
▁nắng 7921
БИТ 7922
حاد 7923
▁ЧИСЛЕ 7924
辺 7925
▁PERUBAHAN 7926
▁POLICE 7927
▁DISCUSS 7928
▁أساس 7929
平 7930
СТРОЕН 7931
▁tắc 7932
ПРИНИМА 7933
▁状態 7934
▁thôn 7935
▁ПРИЧИН 7936
車 7937
▁เช่น 7938
▁PIDANA 7939
▁AMERICA 7940
LIMA 7941
弱 7942
障 7943
MIR 7944
▁FALL 7945
▁حين 7946
СЛУШАЙ 7947
▁ЧАСТ 7948
佐 7949
LOOK 7950
趣 7951
▁PROTECT 7952
▁nhẹ 7953
▁البلد 7954
BP 7955
UNDANG 7956
▁LOOKED 7957
bà 7958
▁被害 7959
▁tri 7960
▁buồn 7961
▁AGAMA 7962
روسيا 7963
ียว 7964
ISTIC 7965
▁มีเรื่อง 7966
▁大丈夫 7967
踏 7968
▁СМОТРЕТЬ 7969
ЗНАКОМ 7970
DOK 7971
▁決め 7972
РОССИЙСКО 7973
DERA 7974
LENGKAP 7975
▁ําเภอ 7976
رجل 7977
▁คล้าย 7978
抜 7979
▁الحوار 7980
▁BUY 7981
MATE 7982
▁hùng 7983
▁БОЛЬШОЙ 7984
РАНЕЕ 7985
سمح 7986
ЛЕГ 7987
đến 7988
▁ОНЛАЙН 7989
▁BERLANGSUNG 7990
▁НОЧЬ 7991
СЛЕДОВ 7992
患 7993
▁เขียน 7994
สร้าง 7995
AKTIVITAS 7996
暑 7997
FULLY 7998
▁ДАЛЕЕ 7999
▁言う 8000
▁tận 8001
時 8002
▁FACEBOOK 8003
▁BOY 8004
قابل 8005
ميل 8006
▁PEMAIN 8007
均 8008
名 8009
たく 8010
ОЧКА 8011
▁sẵn 8012
▁MISS 8013
▁話し 8014
▁ENTIRE 8015
▁TEPAT 8016
▁САМИ 8017
▁BASICALLY 8018
▁РАБОТУ 8019
▁กลับบ้าน 8020
▁لما 8021
▁ACARA 8022
吹 8023
برلمان 8024
BACK 8025
ЩЕН 8026
ROLL 8027
bộ 8028
▁hôn 8029
▁الدين 8030
ستمر 8031
▁ACCESS 8032
▁กระทรวง 8033
▁ร่วมกัน 8034
尾 8035
▁ДОБАВИЛ 8036
ЛЕМ 8037
▁КАКИХ 8038
▁GIVEN 8039
▁quang 8040
▁คนไทย 8041
▁BAHAN 8042
COLLECT 8043
込ん 8044
▁ขาด 8045
สัญญา 8046
▁増え 8047
قوى 8048
▁وغير 8049
▁ЦЕНЫ 8050
▁政府 8051
▁DRIVE 8052
▁ДУМАЛ 8053
▁ทะเลาะ 8054
パー 8055
ديمقراطي 8056
اللهم 8057
▁ご覧 8058
▁معنا 8059
át 8060
▁tạm 8061
ВСЁ 8062
مركز 8063
▁bù 8064
袋 8065
▁phạt 8066
▁BELAKANG 8067
استخدام 8068
▁YORK 8069
▁กรม 8070
DEMI 8071
配 8072
▁المسلمين 8073
OW 8074
ЩИЙ 8075
▁学校 8076
▁نوع 8077
▁เพื่อให้ 8078
▁КОТОРОЙ 8079
DAFTAR 8080
▁REACH 8081
▁PENYI 8082
PY 8083
СЕЙЧАС 8084
PROFESSOR 8085
▁bạc 8086
▁SPECIAL 8087
ЛЕЧ 8088
▁siêu 8089
▁ล้ม 8090
บู 8091
▁TERLIHAT 8092
حديث 8093
IFIED 8094
▁WHATEVER 8095
ЮЩИХ 8096
▁الأخ 8097
KHUSUSNYA 8098
BERDASARKAN 8099
▁SEND 8100
▁giỏi 8101
ПРИЯТН 8102
▁ДЕВЯТ 8103
▁MENGAMBIL 8104
▁ПЕРЕВЕДЁННОГО 8105
ТУРИСТ 8106
▁KNOWN 8107
▁ก่อ 8108
▁PROTOKOL 8109
忍 8110
HAVE 8111
采 8112
▁MORNING 8113
伸 8114
総 8115
ショ 8116
▁MULTI 8117
اقتصاد 8118
ШЕЛ 8119
การณ์ 8120
▁ผู้ก่อเหตุ 8121
メン 8122
▁ตั้งใจ 8123
撃 8124
▁MENERIMA 8125
秦 8126
▁ПЕРЕВОДИТСЯ 8127
CIL 8128
▁ВАМИ 8129
أهلا 8130
▁بكم 8131
切り 8132
ГАЗ 8133
要 8134
زع 8135
ない 8136
▁MENUNGGU 8137
途 8138
▁สนาม 8139
▁แพง 8140
▁KEBUTUHAN 8141
▁ГОВОРИТЬ 8142
ЕННЫЕ 8143
ГОСУДАРСТВЕННОГО 8144
▁ต่อเนื่อง 8145
▁lũ 8146
▁すぐ 8147
▁FAIR 8148
▁الخليج 8149
▁МОЯ 8150
▁เรื่อย 8151
INCLUDING 8152
غي 8153
▁แซ 8154
▁ที่ไหน 8155
▁新た 8156
طرح 8157
▁VOICE 8158
▁OFFER 8159
頂 8160
▁DEMOKRAT 8161
▁ДЕТЕЙ 8162
▁ระวัง 8163
キー 8164
món 8165
▁予想 8166
▁ПЕРЕВОДЧИК 8167
KAI 8168
ขาย 8169
▁OFFICE 8170
▁cận 8171
所 8172
▁العسكري 8173
▁มานะ 8174
كتب 8175
SYARAT 8176
▁違う 8177
▁TECHNOLOGY 8178
▁thuê 8179
▁TENAGA 8180
سؤال 8181
▁ly 8182
COMMUN 8183
▁LAPORAN 8184
▁ENERGY 8185
▁xếp 8186
▁biện 8187
▁máu 8188
LAPOR 8189
▁RULE 8190
ЧНЫХ 8191
БУД 8192
ГРО 8193
▁MEMBANGUN 8194
雲 8195
▁ยาเสพติด 8196
مارس 8197
麦 8198
▁mái 8199
ทะเล 8200
▁19 8201
▁ИСПАНСКИЙ 8202
宗 8203
▁BEHIND 8204
▁LOCAL 8205
ФОТОГРАФ 8206
FASILITAS 8207
▁ПОЧТИ 8208
▁โซเชียล 8209
▁ยอด 8210
أمن 8211
АРТ 8212
杯 8213
BELUM 8214
▁MILIK 8215
▁LINK 8216
鼠 8217
▁يكن 8218
ШЕСТ 8219
▁niệm 8220
▁METER 8221
BED 8222
▁แนว 8223
▁EXPECT 8224
ТРЕБ 8225
ファ 8226
▁ENVIRONMENT 8227
▁bức 8228
▁gà 8229
▁DARIPADA 8230
SCRIPT 8231
都 8232
ブル 8233
▁วัยรุ่น 8234
หวาน 8235
▁ИДЁТ 8236
▁ВЗЯТЬ 8237
▁โชค 8238
دى 8239
橋 8240
▁BAY 8241
▁ชี้แจง 8242
تحر 8243
▁生き 8244
咋 8245
▁สมมุติ 8246
▁POLRI 8247
▁ทีเดียว 8248
ربع 8249
▁PERJUANGAN 8250
欧 8251
▁対策 8252
▁คลอง 8253
INSTEAD 8254
إستراتيجي 8255
▁นั่นเอง 8256
KAPAN 8257
シー 8258
▁ITSELF 8259
▁thẳng 8260
رفض 8261
▁MENUNJUKKAN 8262
PEOPLE 8263
▁POTENSI 8264
▁大学 8265
▁七十 8266
庁 8267
略 8268
HANG 8269
▁KANTOR 8270
駅 8271
▁đen 8272
▁القرار 8273
УСТАНОВИ 8274
ЗИМ 8275
足 8276
لاق 8277
▁hàn 8278
▁REQUIRE 8279
PLACE 8280
▁MENDUKUNG 8281
▁ГРАДУСОВ 8282
税 8283
▁SANG 8284
▁入り 8285
▁FUND 8286
▁แชร์ 8287
述 8288
عظم 8289
▁やり 8290
▁nhắn 8291
▁ПЕС 8292
▁الأولى 8293
▁ОБРАЗОМ 8294
▁กระแส 8295
▁HAPPY 8296
СМОТРЕЛ 8297
▁tôn 8298
▁tốc 8299
▁ЛЮБЛЮ 8300
▁ALAM 8301
▁SITUATION 8302
СОВРЕМЕНН 8303
EMPLOY 8304
池 8305
سير 8306
▁đổ 8307
ゼ 8308
祖 8309
МИЛЛИОН 8310
▁RETURN 8311
▁HAPPENS 8312
▁БЕЛО 8313
▁vững 8314
KEL 8315
▁EPISODE 8316
▁MENDATANG 8317
析 8318
СТРОИТЬ 8319
瑞 8320
ДАЙ 8321
POINT 8322
▁วันนั้น 8323
▁LEARNING 8324
▁ตรงนั้น 8325
▁ニュース 8326
仕 8327
▁高い 8328
たっ 8329
▁kênh 8330
▁مما 8331
▁КОТОРУЮ 8332
ВОЛЬ 8333
ساء 8334
▁แปลก 8335
▁最高 8336
FROM 8337
旧 8338
WAJIB 8339
▁КОЛИЧЕСТВО 8340
伝 8341
▁ระบบ 8342
わっ 8343
▁ศาล 8344
▁СИНОНИМЫ 8345
قيادة 8346
▁กด 8347
▁كانوا 8348
▁GIMANA 8349
▁ดังนั้น 8350
CUM 8351
食 8352
▁СВОЁ 8353
重 8354
▁الحل 8355
ล้อ 8356
▁เนอะ 8357
▁đài 8358
▁قوات 8359
観 8360
▁TANYA 8361
備 8362
▁bè 8363
握 8364
▁TAX 8365
▁紹介 8366
付け 8367
LOAD 8368
▁SEGALA 8369
BEBAS 8370
▁sàng 8371
▁強い 8372
ウン 8373
▁mừng 8374
▁EASY 8375
▁ISSUES 8376
▁PICK 8377
▁くれる 8378
▁البلاد 8379
▁MEMASTIKAN 8380
▁EITHER 8381
▁pha 8382
▁cuốn 8383
ái 8384
▁รถกระบะ 8385
TERKAIT 8386
ЭН 8387
▁MENGIKUTI 8388
▁สอบถาม 8389
ТАКЖЕ 8390
DENGAR 8391
▁เบื้องต้น 8392
▁SOFTWARE 8393
ETH 8394
được 8395
▁ВОСПРОИЗВЕДЕНИЕ 8396
夜 8397
▁ดังกล่าว 8398
▁khô 8399
▁MENDENGAR 8400
▁trú 8401
▁LIST 8402
▁hẹn 8403
▁kịp 8404
▁結果 8405
SEJAUH 8406
▁プロ 8407
勇 8408
ДОКУМЕНТ 8409
▁กันที่ 8410
冠 8411
▁บุ 8412
▁chữ 8413
▁MENTAL 8414
資 8415
▁العملية 8416
▁終わ 8417
沙 8418
耳 8419
▁tụ 8420
▁DIANGGAP 8421
▁จับกลุ่ม 8422
ПИЛ 8423
▁ชื่อว่า 8424
▁الحديث 8425
▁dữ 8426
規 8427
▁НОРМАЛЬНО 8428
تغير 8429
▁PASANGAN 8430
▁ДОСТУП 8431
СТАВИЛ 8432
PERFECT 8433
МИЛ 8434
▁huế 8435
ВЕЛО 8436
إطلاق 8437
サイ 8438
▁นักข่าว 8439
جاب 8440
مناطق 8441
▁СЛИШКОМ 8442
虚 8443
▁cán 8444
▁hô 8445
إخوان 8446
اقت 8447
▁SPEND 8448
餐 8449
巡 8450
浪 8451
▁ตุ 8452
БИН 8453
ครอง 8454
▁КИТАЙ 8455
▁ПЛОХО 8456
経 8457
ประโยชน์ 8458
崎 8459
CHES 8460
ักษ์ 8461
▁xưa 8462
▁الخارجية 8463
▁แทง 8464
▁ส่วนใหญ่ 8465
ساح 8466
▁rượu 8467
▁СКАЗАЛА 8468
▁今年 8469
▁相手 8470
MENJADI 8471
▁СТАЛИ 8472
▁НЕОБХОДИМО 8473
▁DIFFERENCE 8474
烈 8475
TOWN 8476
海 8477
▁DIKATAKAN 8478
ぁ 8479
لعب 8480
▁PICTURE 8481
▁CULTURE 8482
▁DETAIL 8483
▁PULAU 8484
cách 8485
▁ЖИВОТ 8486
عطي 8487
▁GIRL 8488
▁وقت 8489
▁suốt 8490
▁MEETING 8491
اغ 8492
示 8493
▁นักท่องเที่ยว 8494
▁الليبي 8495
▁PENGGUNA 8496
مؤسسات 8497
حافظ 8498
POLDA 8499
▁EARTH 8500
▁طريق 8501
▁ДОЛЖНО 8502
МИСС 8503
能 8504
ГУЛЯ 8505
▁ЯВЛЯЕТСЯ 8506
▁الانتخابات 8507
CAST 8508
▁UNIT 8509
▁MENDAPAT 8510
新 8511
▁PARK 8512
▁ГОВОРЯТ 8513
ろう 8514
đặc 8515
RAWAT 8516
▁kẻ 8517
▁SOCIETY 8518
▁代表 8519
▁РАБОТАЕТ 8520
丁 8521
▁nà 8522
かん 8523
▁SEEMS 8524
▁แล้วกัน 8525
▁CHALLENGE 8526
描 8527
▁RATA 8528
МЕТР 8529
صير 8530
威 8531
ПИСАЛ 8532
雄 8533
ラー 8534
MOHON 8535
▁ท่วม 8536
ОДНАКО 8537
▁ระบุ 8538
▁القوى 8539
▁đốc 8540
برج 8541
FOKUS 8542
▁บี 8543
▁buộc 8544
▁ほしい 8545
▁thuế 8546
▁GUESS 8547
OLOGY 8548
▁ซะ 8549
▁สงสัย 8550
▁POLICY 8551
BIAR 8552
▁たくさん 8553
▁ตัดสินใจ 8554
CLAIM 8555
▁PEREMPUAN 8556
▁午前 8557
▁وإن 8558
▁総理 8559
▁niên 8560
โอกาส 8561
▁向け 8562
避 8563
ПОСТРОЙ 8564
كانت 8565
戸 8566
識 8567
情 8568
▁أبو 8569
▁mãi 8570
ゲ 8571
囲 8572
PERTAMA 8573
▁الشرق 8574
▁JOKO 8575
▁tết 8576
▁様子 8577
▁ทา 8578
200 8579
▁ВЫБОР 8580
▁แทน 8581
▁น่ะ 8582
▁เฉพาะ 8583
▁ほか 8584
湖 8585
▁สู่ 8586
▁FAST 8587
bãi 8588
▁عدم 8589
▁hy 8590
▁ซี 8591
▁ดิ 8592
PENGARUH 8593
▁หน่วยงาน 8594
НАДЦАТЬ 8595
▁ПРАВИЛЬНО 8596
▁天気 8597
▁注目 8598
ЭЙ 8599
ЦОВ 8600
▁PRACTICE 8601
КОТОРОЕ 8602
▁STREET 8603
▁يوجد 8604
▁tá 8605
▁СМАРТ 8606
▁bữa 8607
ผู้ 8608
▁DAMPAK 8609
ЛЕЗ 8610
ЧТОБЫ 8611
▁МНОЙ 8612
TRAIN 8613
▁COLLEGE 8614
جتمع 8615
وظ 8616
▁ได้มา 8617
▁สังเกต 8618
▁СЧИТАЮ 8619
▁أكبر 8620
▁ACCOUNT 8621
IGN 8622
ШЕЙ 8623
▁調べ 8624
▁تماما 8625
▁ОКАЗА 8626
ПОЧЕМУ 8627
▁SAMPAH 8628
▁tồn 8629
▁OUTSIDE 8630
▁นี้แหละ 8631
▁FAVOR 8632
字 8633
▁ซ้ํา 8634
▁سنوات 8635
▁họp 8636
วิทยา 8637
▁明日 8638
▁RATHER 8639
▁家族 8640
▁СОБСТВЕННО 8641
談 8642
▁mê 8643
وصف 8644
▁НАЧАЛА 8645
▁ส่วนตัว 8646
▁知ら 8647
▁料理 8648
СИН 8649
สูง 8650
ЖЕЛЕЗНОДОРОЖН 8651
▁DINAS 8652
▁ПЛЯЖ 8653
▁現場 8654
مثال 8655
đúng 8656
▁điển 8657
СЛАВ 8658
ไฟฟ้า 8659
マン 8660
▁بكل 8661
TENG 8662
▁EYES 8663
▁الأخرى 8664
ГОСУДАРСТВ 8665
СПОЛЬЗ 8666
▁rừng 8667
▁今後 8668
СМЫСЛ 8669
▁cú 8670
▁ТОМУ 8671
▁SURVEI 8672
وصول 8673
▁โปร 8674
▁GAVE 8675
เสริม 8676
▁部分 8677
▁จี 8678
ويل 8679
ГЛЯД 8680
БЛЮД 8681
伊 8682
ВЕДЕНИЯ 8683
▁HAKIM 8684
el 8685
ขวัญ 8686
▁KETERANGAN 8687
続 8688
▁عشر 8689
▁ВЕЧЕРОМ 8690
ồn 8691
▁BERKE 8692
HUN 8693
▁ЗНАЛ 8694
▁PARENTS 8695
▁確か 8696
▁บัตร 8697
▁อาวุธ 8698
▁แบ 8699
▁tạp 8700
▁KAMPUNG 8701
▁CAMP 8702
▁ให้การ 8703
ИЧЕСКОГО 8704
▁الدستور 8705
▁الجديد 8706
▁ความเชื่อ 8707
▁CHURCH 8708
よ 8709
พันธุ์ 8710
▁DRUG 8711
▁vé 8712
▁LISTRIK 8713
▁huyết 8714
恩 8715
▁อย่างนั้น 8716
▁КУЛЬТУР 8717
معركة 8718
ABSOLUTELY 8719
طائفي 8720
後 8721
験 8722
▁กอ 8723
عش 8724
คุณ 8725
▁ยู 8726
▁بإ 8727
▁ПРОБЛЕМ 8728
防 8729
РУШ 8730
▁ผู้ป่วย 8731
▁最初 8732
▁tiêm 8733
bo 8734
▁СПАС 8735
知 8736
確 8737
▁ที่แล้ว 8738
حاكم 8739
FLOW 8740
РОЗ 8741
ИТЕЛЬНО 8742
▁rút 8743
▁PAPER 8744
▁НОРМ 8745
▁วจะ 8746
▁bật 8747
祝 8748
ГЛУ 8749
ЮЩИЕ 8750
PROSES 8751
▁MIDDLE 8752
▁見る 8753
▁GOLKAR 8754
▁nhằm 8755
ื้น 8756
▁ИСТОРИИ 8757
空 8758
طاب 8759
▁การเมือง 8760
СДЕЛАЙ 8761
徒 8762
▁HUGE 8763
▁映像 8764
IFY 8765
▁เร่ง 8766
คดี 8767
▁เย 8768
TAHUN 8769
▁هنالك 8770
DAHULU 8771
▁niềm 8772
SELAMA 8773
直 8774
HOOD 8775
▁近く 8776
KP 8777
▁СОЖАЛЕНИЮ 8778
▁TOKOH 8779
▁chấm 8780
เกล 8781
▁例えば 8782
▁SULIT 8783
▁SEKTOR 8784
硬 8785
▁khuyến 8786
TINDAK 8787
قيم 8788
▁ЗАЯВ 8789
▁ГРУ 8790
▁trắng 8791
▁IMPACT 8792
遍 8793
ダー 8794
▁STAFF 8795
▁НЁМ 8796
▁พลัง 8797
▁thờ 8798
ОЧКИ 8799
▁trụ 8800
箱 8801
▁APPEAR 8802
▁trông 8803
▁СПИСОК 8804
▁ความคืบหน้า 8805
▁khoán 8806
▁มอเตอร์ไซค์ 8807
▁DEVELOPMENT 8808
KAMPANYE 8809
▁ค่อย 8810
hủy 8811
РАССКАЗЫВА 8812
▁ไข่ 8813
▁やはり 8814
フィ 8815
▁НАШЕЙ 8816
▁НОВЫЕ 8817
ХОЧЕШЬ 8818
▁สัมภาษณ์ 8819
▁いろんな 8820
▁MODERN 8821
▁ป้าย 8822
▁แผน 8823
▁คณะ 8824
▁関東 8825
▁EAT 8826
صاب 8827
مجموعة 8828
▁CONTENT 8829
▁ألف 8830
НАХОДИ 8831
護 8832
▁SIMPLE 8833
▁番組 8834
任 8835
▁คุณหมอ 8836
▁thuyết 8837
trên 8838
خلاف 8839
PERHAPS 8840
ИЧЕСКИЙ 8841
ثورة 8842
▁đem 8843
▁giảng 8844
▁TAKEN 8845
▁GANJAR 8846
ิ้ว 8847
▁КИЛОМЕТРОВ 8848
СПИ 8849
بالتالي 8850
欠 8851
خدم 8852
▁الجو 8853
▁รางวัล 8854
▁МУЖ 8855
▁逮捕 8856
ШИБ 8857
▁HAPPENING 8858
▁คงจะ 8859
▁หลบหนี 8860
▁八十 8861
POSE 8862
▁อาชีพ 8863
▁สูตร 8864
ử 8865
▁LOST 8866
▁GURU 8867
▁rác 8868
▁ซิ 8869
▁ชุมชน 8870
営 8871
托 8872
殿 8873
盗 8874
▁cục 8875
▁ngắn 8876
▁CHARACTER 8877
▁お前 8878
ПЛЕ 8879
ぜ 8880
▁ขวบ 8881
▁นาฬิกา 8882
HEY 8883
▁СВОЕГО 8884
▁なんて 8885
▁เป็นที่ 8886
▁UPON 8887
▁ECONOMIC 8888
ضغط 8889
▁EVIDENCE 8890
ЛЕР 8891
qua 8892
▁ОДНОГО 8893
▁เกาะ 8894
▁บ่อย 8895
▁ขอโทษ 8896
▁ПРОБЛЕМА 8897
số 8898
ШИМ 8899
▁ดิฉัน 8900
▁الأزمة 8901
半 8902
▁THIRD 8903
WARGA 8904
▁MATERIAL 8905
童 8906
▁COMPANIES 8907
▁KONTEKS 8908
▁СТАНЦИИ 8909
اجتماع 8910
▁بهذه 8911
ИНОГДА 8912
▁งู 8913
睛 8914
▁GERINDRA 8915
▁やる 8916
▁ПРАВО 8917
▁АДРЕС 8918
▁事故 8919
▁КАКОЕ 8920
▁SUNGAI 8921
RAW 8922
ULAR 8923
▁นก 8924
師 8925
透 8926
固 8927
▁يجري 8928
bên 8929
▁hiệp 8930
植 8931
▁الأقل 8932
▁พัง 8933
▁ПРИМЕРНО 8934
ВЕРШ 8935
▁MINTA 8936
▁المناطق 8937
▁lãi 8938
▁لهذا 8939
▁กล่าว 8940
شارك 8941
▁СВОЕ 8942
階 8943
▁タイ 8944
▁ซอย 8945
ВЕЛ 8946
▁ПОСТОЯННО 8947
▁NICE 8948
تنفيذ 8949
▁MERAH 8950
▁phiếu 8951
証 8952
▁MILIAR 8953
▁bó 8954
▁COMMENT 8955
نصر 8956
▁BEGAN 8957
虎 8958
СКОПИРУЙ 8959
雅 8960
▁TEKNOLOGI 8961
▁كثيرة 8962
تعاون 8963
仙 8964
▁НОВЫЙ 8965
▁الأمم 8966
段 8967
▁FEAR 8968
▁المقاومة 8969
10 8970
ПЕРВЫХ 8971
▁JUSTICE 8972
侵 8973
БЕГ 8974
▁EXPLAIN 8975
▁HUJAN 8976
▁MAJU 8977
معلومات 8978
▁オー 8979
▁تقوم 8980
タン 8981
▁sỹ 8982
▁cắt 8983
▁地域 8984
▁ВРОДЕ 8985
หนังสือ 8986
▁الحوثي 8987
▁เมนู 8988
ПИСАТЬ 8989
▁WEBSITE 8990
▁หมู่ 8991
ЩЕНИЯ 8992
▁รุ่น 8993
▁thác 8994
БУДЕТ 8995
أعمال 8996
WOOD 8997
援 8998
唯 8999
▁PARTY 9000
▁دائما 9001
▁なかなか 9002
▁TRAVEL 9003
▁КНИГ 9004
▁ВОСЬМ 9005
▁TERBUKA 9006
▁HUTAN 9007
▁HAJI 9008
▁ПОСТАВИЛ 9009
▁ORIGIN 9010
▁ЛУЧ 9011
フェ 9012
尊 9013
▁KERETA 9014
▁BOLA 9015
演 9016
▁INTERNAL 9017
約 9018
▁SUMBER 9019
▁RECEIVE 9020
▁TAHAP 9021
局 9022
▁PHONE 9023
ЦАР 9024
▁USIA 9025
禁 9026
▁lô 9027
▁นายกรัฐมนตรี 9028
▁ROLE 9029
▁INTERNET 9030
hoặc 9031
تطور 9032
▁JENIS 9033
▁ПОЛНОСТЬЮ 9034
帯 9035
إجراء 9036
SIGHT 9037
▁SEBELAS 9038
持 9039
▁CRITIC 9040
▁ОКОЛО 9041
MASYARAKAT 9042
▁СЛУЧАЙ 9043
ؤمن 9044
仲 9045
ượng 9046
▁SOON 9047
▁sóng 9048
قضايا 9049
لدينا 9050
アン 9051
▁PIMPINAN 9052
▁DOCTOR 9053
▁СВОБОД 9054
▁rơi 9055
▁ทันที 9056
▁TERTENTU 9057
▁生活 9058
▁บ่าย 9059
珍 9060
▁АЛЕКСАНДР 9061
▁ngờ 9062
▁มากขึ้น 9063
話 9064
▁REFER 9065
ГРИ 9066
SEPAKAT 9067
▁IMAGE 9068
▁لكم 9069
▁ย้อน 9070
▁thí 9071
DOWN 9072
甲 9073
▁ยื่น 9074
器 9075
▁INCREASE 9076
▁中心 9077
▁МЕНЕЕ 9078
▁فعلا 9079
▁もっと 9080
圧 9081
▁PRIBADI 9082
▁УТРО 9083
ナー 9084
КЛАСС 9085
▁سنة 9086
ثر 9087
▁اللبناني 9088
▁นิดนึง 9089
▁NUR 9090
▁行き 9091
▁chóng 9092
▁MASKER 9093
▁cưới 9094
▁ПРИЗНА 9095
▁当時 9096
▁khổ 9097
▁ДОМОЙ 9098
▁พอดี 9099
СЛОЖ 9100
つく 9101
▁ผี 9102
▁ЧАСТИ 9103
染 9104
▁ГОВОРЮ 9105
▁AMOUNT 9106
性 9107
▁ป้องกัน 9108
並 9109
▁SEVERAL 9110
▁БИЛЕТЫ 9111
▁น่ง 9112
▁ผู้สื่อข่าว 9113
ОЧЕНЬ 9114
▁DISEASE 9115
▁ДОЛЖНА 9116
▁สําเร็จ 9117
▁ИТОГЕ 9118
▁БЫСТРО 9119
▁意味 9120
▁thừa 9121
▁TALKED 9122
ПИСАН 9123
▁BIKIN 9124
▁dừng 9125
馬 9126
▁AUTO 9127
▁動き 9128
磨 9129
▁tái 9130
▁CENTURY 9131
▁กล้อง 9132
▁mét 9133
▁สมัย 9134
▁เชียงใหม่ 9135
СЕК 9136
辞 9137
▁TRUTH 9138
▁cánh 9139
▁高校 9140
▁PERGI 9141
▁RICH 9142
▁WIDODO 9143
▁ПОРЯДКЕ 9144
AKHIRNYA 9145
فرض 9146
▁かなり 9147
▁VAKSINASI 9148
ゅ 9149
▁يقوم 9150
sh 9151
▁tầng 9152
継 9153
СИЛЬ 9154
▁السلاح 9155
▁APPROACH 9156
▁COLOR 9157
満 9158
▁ดาว 9159
宿 9160
▁จากนี้ 9161
▁大事 9162
▁WRITING 9163
▁đích 9164
▁กัด 9165
▁大谷 9166
▁ห่าง 9167
▁APPLICATION 9168
▁PENGU 9169
ТЕХНОЛОГ 9170
▁SOURCE 9171
▁COULDN 9172
▁وأنا 9173
▁وسلم 9174
باط 9175
格 9176
▁พ่อแม่ 9177
徐 9178
▁พัฒนา 9179
▁ประสบ 9180
▁落ち 9181
▁ไหว้ 9182
▁超え 9183
ГРАН 9184
▁EVA 9185
BLO 9186
▁NATURAL 9187
DISCOVER 9188
▁ЗНАЧЕНИЯ 9189
亡 9190
بني 9191
صعب 9192
THOSE 9193
▁二百 9194
สินค้า 9195
▁thù 9196
ОТКРЫВ 9197
難 9198
▁言い 9199
▁vời 9200
НСКОГО 9201
ПЕТЕРБУРГ 9202
▁يحدث 9203
ОЦЕН 9204
▁ATTENTION 9205
刑 9206
▁TECH 9207
▁tuyên 9208
▁SAFE 9209
ГРАФ 9210
▁CHINA 9211
ทรัพย์ 9212
丸 9213
沈 9214
▁เพื่อที่จะ 9215
NDRA 9216
▁ПРОЦЕСС 9217
▁القضية 9218
▁SIXTY 9219
陸 9220
▁gắn 9221
▁الحوثيين 9222
▁الطرف 9223
▁МОЖЕМ 9224
▁واحدة 9225
▁CELL 9226
▁TUBUH 9227
قطع 9228
KALA 9229
БОЛЬШОЕ 9230
▁หัน 9231
▁BUTUH 9232
▁HOTEL 9233
ВЛЕК 9234
▁GONE 9235
▁進め 9236
▁АБСОЛЮТНО 9237
▁PENANGANAN 9238
▁đoán 9239
▁ПРАКТИЧЕСКИ 9240
▁dịp 9241
急 9242
▁لهذه 9243
БЕН 9244
▁SLEEP 9245
敬 9246
▁داعش 9247
▁GEDUNG 9248
ืด 9249
▁وهناك 9250
細 9251
▁КОТОРОМ 9252
▁ЛИНИИ 9253
▁CODE 9254
▁ПОКУПА 9255
▁FAKTA 9256
chủ 9257
▁ธน 9258
▁ホーム 9259
▁АНТОНИМЫ 9260
▁อร่อย 9261
▁ทรง 9262
ЧНАЯ 9263
ИВАЮТ 9264
▁รํา 9265
▁НАШИХ 9266
▁cam 9267
▁ปัจจุบัน 9268
▁SANDI 9269
▁REMAIN 9270
▁CANNOT 9271
がる 9272
▁ชัด 9273
يفة 9274
▁ГРАЖДАН 9275
臣 9276
▁รัฐมนตรี 9277
▁МОГЛИ 9278
▁TANGGA 9279
▁lái 9280
▁السؤال 9281
嫁 9282
ЭТ 9283
▁СМОГУ 9284
▁ครั้งหนึ่ง 9285
ชี 9286
▁๒๓ 9287
▁เมื่อกี้ 9288
▁แบ่ง 9289
▁ПОСМОТРИМ 9290
▁ฟ้อง 9291
▁جيد 9292
▁GREEN 9293
▁ТОРГОВ 9294
▁ช้าง 9295
▁РЕШЕНИЕ 9296
▁เก่ง 9297
АЛЬНЫЕ 9298
伯 9299
▁ПРОБЛЕМЫ 9300
ЗВОН 9301
▁ひと 9302
▁ต่ํา 9303
تقرير 9304
▁บ่อ 9305
▁СТОРОН 9306
ПОЛЬ 9307
▁NATION 9308
▁ปลอดภัย 9309
▁สืบ 9310
▁صلى 9311
版 9312
▁大きく 9313
▁تركيا 9314
▁DROP 9315
▁สะพาน 9316
▁عمر 9317
BEBERAPA 9318
酸 9319
▁MC 9320
▁BIDANG 9321
▁สภา 9322
▁CORONA 9323
▁thải 9324
▁DISC 9325
復 9326
▁cháy 9327
▁ธุรกิจ 9328
欲 9329
▁الموقف 9330
▁بسبب 9331
▁ДЕНЕГ 9332
توقع 9333
وعد 9334
価 9335
券 9336
▁DITEMUKAN 9337
จักร 9338
АТИВ 9339
ПИСЬ 9340
▁HARAPAN 9341
آخر 9342
▁الأطراف 9343
عكس 9344
▁なぜ 9345
ريد 9346
糖 9347
▁đắt 9348
遺 9349
▁パン 9350
▁AMONG 9351
ЧЕСТВО 9352
▁คอย 9353
▁สพ 9354
▁MENEMUKAN 9355
▁流れ 9356
▁УТРОМ 9357
▁全部 9358
▁ДОРОГО 9359
因 9360
▁PERATURAN 9361
▁PARTNER 9362
は 9363
▁WALL 9364
▁ВЕЩИ 9365
▁НЕЛЬЗЯ 9366
阪 9367
位 9368
▁くらい 9369
FUNGSI 9370
ぱ 9371
▁うわ 9372
灯 9373
▁LEGAL 9374
▁นอกจาก 9375
▁song 9376
▁РОЛИК 9377
偏 9378
敗 9379
▁อีกที 9380
▁GRAND 9381
إرهاب 9382
▁写真 9383
▁QUICKLY 9384
▁trương 9385
mười 9386
رفع 9387
▁KESEMPATAN 9388
津 9389
▁ПРОИСХОДИТ 9390
ОПРЕДЕЛИ 9391
РАБОТАЛ 9392
火 9393
▁ОСТАЛЬН 9394
▁TEND 9395
▁ทั่ว 9396
▁ВЗЯЛ 9397
▁КРУП 9398
▁ความผิด 9399
▁โอเค 9400
xi 9401
▁МУЖЧИН 9402
▁RUNNING 9403
CINTA 9404
▁dây 9405
▁كذلك 9406
▁PUSH 9407
▁KONSTITUSI 9408
主 9409
▁PLATFORM 9410
▁tòa 9411
▁ЧАСА 9412
تحد 9413
▁قلت 9414
湿 9415
▁しよう 9416
▁TURNED 9417
費 9418
▁nghèo 9419
РОССИЯ 9420
ГОСУДАРСТВЕНН 9421
انقلاب 9422
羽 9423
▁đợt 9424
流 9425
芸 9426
▁เมื่อคืน 9427
▁RESMI 9428
▁MESSAGE 9429
ví 9430
▁tấm 9431
WELCOME 9432
▁МУЗЫКА 9433
▁trừ 9434
保 9435
▁ก่อนที่จะ 9436
▁บาดเจ็บ 9437
เล่น 9438
▁ทั้งคู่ 9439
軽 9440
▁記録 9441
▁MEMBUKA 9442
▁BENEFIT 9443
ЁШЬ 9444
▁СОСТАВ 9445
豪 9446
▁CERTAINLY 9447
▁TRACK 9448
▁MENCOBA 9449
▁đợi 9450
▁ย้าย 9451
▁sung 9452
ДВИГ 9453
峰 9454
تعرف 9455
▁مباشر 9456
▁ALASAN 9457
宋 9458
太 9459
冒 9460
漫 9461
在 9462
説 9463
命 9464
妙 9465
元 9466
岩 9467
戴 9468
? 9469
隔 9470
摘 9471
牙 9472
正 9473
衛 9474
洞 9475
浮 9476
容 9477
ぬ 9478
量 9479
炎 9480
ヘ 9481
押 9482
媒 9483
頼 9484
館 9485
悔 9486
旦 9487
湾 9488
菲 9489
根 9490
惜 9491
論 9492
越 9493
協 9494
極 9495
岸 9496
佳 9497
感 9498
薬 9499
狼 9500
壁 9501
捕 9502
崩 9503
ぽ 9504
銀 9505
j 9506
技 9507
給 9508
ェ 9509
積 9510
補 9511
莫 9512
賞 9513
枚 9514
棒 9515
導 9516
認 9517
争 9518
巧 9519
滑 9520
怖 9521
泡 9522
典 9523
断 9524
董 9525
態 9526
恨 9527
緊 9528
鼓 9529
砂 9530
悲 9531
除 9532
洲 9533
義 9534
塁 9535
映 9536
読 9537
統 9538
凶 9539
算 9540
絶 9541
怒 9542
舍 9543
培 9544
眠 9545
製 9546
尚 9547
沿 9548
隊 9549
献 9550
佛 9551
丈 9552
節 9553
序 9554
腿 9555
院 9556
猛 9557
筋 9558
額 9559
城 9560
抽 9561
搭 9562
姻 9563
焼 9564
潜 9565
弁 9566
泉 9567
降 9568
朱 9569
集 9570
勤 9571
異 9572
試 9573
仍 9574
羊 9575
ユ 9576
征 9577
詳 9578
傷 9579
凡 9580
児 9581
朝 9582
巻 9583
躍 9584
種 9585
裏 9586
御 9587
鹿 9588
狙 9589
的 9590
柔 9591
庄 9592
惑 9593
坂 9594
億 9595
脾 9596
鞋 9597
竹 9598
抑 9599
薄 9600
落 9601
措 9602
寝 9603
煮 9604
魚 9605
寺 9606
測 9607
式 9608
嘉 9609
燃 9610
労 9611
鉄 9612
珠 9613
拾 9614
荒 9615
ầ 9616
屈 9617
胆 9618
忠 9619
虫 9620
形 9621
ヨ 9622
荷 9623
準 9624
図 9625
女 9626
ẳ 9627
桃 9628
瓶 9629
訴 9630
弾 9631
送 9632
敏 9633
刷 9634
針 9635
臭 9636
妖 9637
焦 9638
造 9639
距 9640
胸 9641
古 9642
加 9643
引 9644
肺 9645
米 9646
幼 9647
聴 9648
隆 9649
夢 9650
屏 9651
王 9652
淡 9653
助 9654
北 9655
望 9656
由 9657
浜 9658
携 9659
蒙 9660
狂 9661
夕 9662
魅 9663
奈 9664
魂 9665
番 9666
耐 9667
美 9668
西 9669
奪 9670
課 9671
詰 9672
宙 9673
級 9674
添 9675
石 9676
ゃ 9677
肩 9678
全 9679
励 9680
齢 9681
慧 9682
掛 9683
多 9684
旗 9685
構 9686
想 9687
梁 9688
殊 9689
附 9690
像 9691
伺 9692
株 9693
腰 9694
競 9695
丹 9696
盟 9697
遅 9698
宜 9699
社 9700
吐 9701
白 9702
豊 9703
仗 9704
悟 9705
炒 9706
絵 9707
頃 9708
沢 9709
覆 9710
怨 9711
滴 9712
灰 9713
紙 9714
腕 9715
ィ 9716
処 9717
ぇ 9718
昔 9719
遠 9720
相 9721
許 9722
党 9723
偶 9724
飯 9725
災 9726
陽 9727
牲 9728
ฏ 9729
毫 9730
習 9731
農 9732
刻 9733
狐 9734
尼 9735
遊 9736
養 9737
潮 9738
店 9739
絡 9740
抵 9741
糊 9742
爬 9743
鼻 9744
徴 9745
卵 9746
走 9747
摩 9748
隠 9749
泪 9750
鳥 9751
逐 9752
奏 9753
翔 9754
少 9755
星 9756
截 9757
塩 9758
柳 9759
稿 9760
始 9761
棋 9762
著 9763
穴 9764
瓜 9765
液 9766
琴 9767
昼 9768
繁 9769
撒 9770
客 9771
雪 9772
肥 9773
莉 9774
懸 9775
寿 9776
神 9777
捉 9778
菌 9779
了 9780
胃 9781
祭 9782
華 9783
功 9784
底 9785
筑 9786
邪 9787
乾 9788
壊 9789
孝 9790
悩 9791
召 9792
順 9793
仁 9794
織 9795
得 9796
請 9797
脳 9798
繰 9799
接 9800
蜜 9801
犬 9802
興 9803
訪 9804
碗 9805
泳 9806
瞬 9807
幹 9808
撮 9809
倒 9810
募 9811
件 9812
差 9813
曹 9814
打 9815
泥 9816
倉 9817
奔 9818
壮 9819
擦 9820
枝 9821
奴 9822
浅 9823
署 9824
頑 9825
汗 9826
昭 9827
類 9828
標 9829
戚 9830
腹 9831
声 9832
闘 9833
炮 9834
適 9835
装 9836
厨 9837
慌 9838
挙 9839
離 9840
戒 9841
桂 9842
娃 9843
先 9844
思 9845
土 9846
慎 9847
林 9848
ỳ 9849
案 9850
! 9851
勉 9852
伏 9853
紫 9854
驚 9855
払 9856
浦 9857
郭 9858
盤 9859
揚 9860
載 9861
敷 9862
納 9863
号 9864
昇 9865
符 9866
密 9867
捜 9868
衝 9869
評 9870
促 9871
歯 9872
門 9873
腐 9874
輩 9875
堆 9876
庫 9877
ă 9878
貴 9879
拠 9880
謝 9881
率 9882
幻 9883
乳 9884
ỷ 9885
塔 9886
疾 9887
鮮 9888
複 9889
討 9890
財 9891
文 9892
閉 9893
司 9894
貌 9895
板 9896
夫 9897
濃 9898
肌 9899
角 9900
江 9901
杉 9902
与 9903
瀬 9904
欣 9905
京 9906
墓 9907
陕 9908
厳 9909
朗 9910
肝 9911
審 9912
杜 9913
玲 9914
盾 9915
舅 9916
柱 9917
隣 9918
渋 9919
迅 9920
葬 9921
蒸 9922
苗 9923
牢 9924
牧 9925
訳 9926
泰 9927
具 9928
帽 9929
蛮 9930
玄 9931
ゾ 9932
有 9933
奸 9934
札 9935
慰 9936
廷 9937
跡 9938
催 9939
工 9940
賀 9941
輸 9942
旬 9943
惨 9944
台 9945
漏 9946
婦 9947
衡 9948
ャ 9949
悠 9950
契 9951
求 9952
守 9953
栄 9954
従 9955
汁 9956
朕 9957
範 9958
交 9959
坦 9960
突 9961
換 9962
湯 9963
診 9964
雑 9965
伍 9966
塞 9967
編 9968
俗 9969
奉 9970
姜 9971
脂 9972
洛 9973
恭 9974
誕 9975
担 9976
練 9977
俊 9978
政 9979
花 9980
孔 9981
泊 9982
漁 9983
胞 9984
匠 9985
市 9986
蔵 9987
音 9988
済 9989
尖 9990
駆 9991
侯 9992
官 9993
兆 9994
効 9995
籍 9996
墨 9997
浴 9998
掘 9999
薇 10000
芝 10001
輝 10002
布 10003
酷 10004
裕 10005
暮 10006
澤 10007
燕 10008
裂 10009
豚 10010
使 10011
岳 10012
粗 10013
菊 10014
整 10015
教 10016
怜 10017
梨 10018
界 10019
矩 10020
去 10021
滞 10022
卓 10023
埼 10024
恵 10025
責 10026
為 10027
臨 10028
邦 10029
同 10030
♪ 10031
緩 10032
採 10033
乃 10034
削 10035
牺 10036
肖 10037
ヴ 10038
劫 10039
放 10040
敵 10041
浸 10042
録 10043
久 10044
氷 10045
締 10046
ฑ 10047
炭 10048
咲 10049
妃 10050
蛇 10051
閣 10052
爽 10053
科 10054
柴 10055
徳 10056
好 10057
浩 10058
遥 10059
凍 10060
存 10061
徹 10062
之 10063
耗 10064
襲 10065
険 10066
芳 10067
傾 10068
姥 10069
溜 10070
寸 10071
曼 10072
単 10073
舗 10074
遣 10075
破 10076
兼 10077
樹 10078
令 10079
恒 10080
ぴ 10081
晴 10082
粒 10083
梯 10084
晶 10085
仰 10086
痕 10087
程 10088
允 10089
桑 10090
諸 10091
劇 10092
慕 10093
紀 10094
也 10095
慢 10096
犯 10097
鈴 10098
呈 10099
松 10100
斤 10101
維 10102
歌 10103
死 10104
油 10105
ฬ 10106
泣 10107
盆 10108
起 10109
築 10110
斜 10111
耀 10112
柄 10113
活 10114
俳 10115
舌 10116
高 10117
捨 10118
辣 10119
住 10120
創 10121
卒 10122
更 10123
答 10124
宏 10125
惠 10126
径 10127
剤 10128
房 10129
層 10130
昌 10131
陣 10132
哲 10133
輪 10134
禍 10135
涛 10136
緑 10137
陵 10138
垃 10139
桶 10140
髪 10141
ヌ 10142
姉 10143
桜 10144
駄 10145
鳴 10146
尿 10147
誉 10148
祥 10149
碍 10150
損 10151
葛 10152
辰 10153
眉 10154
勒 10155
滋 10156
茂 10157
督 10158
« 10159
飼 10160
世 10161
弯 10162
胎 10163
誓 10164
廃 10165
服 10166
銃 10167
窓 10168
男 10169
択 10170
侍 10171
誘 10172
崇 10173
坑 10174
僧 10175
反 10176
純 10177
里 10178
拳 10179
撲 10180
稀 10181
坡 10182
燥 10183
孟 10184
槽 10185
菓 10186
郁 10187
璃 10188
訓 10189
低 10190
串 10191
竜 10192
晋 10193
旋 10194
瓦 10195
表 10196
» 10197
縮 10198
賃 10199
衆 10200
拓 10201
皇 10202
械 10203
犹 10204
覇 10205
乏 10206
盈 10207
専 10208
光 10209
堡 10210
辱 10211
渠 10212
管 10213
陶 10214
雇 10215
領 10216
侠 10217
旨 10218
区 10219
坊 10220
茨 10221
己 10222
及 10223
弥 10224
袖 10225
温 10226
= 10227
狭 10228
畑 10229
殖 10230
佑 10231
汚 10232
溶 10233
潟 10234
堵 10235
哀 10236
翼 10237
芽 10238
q 10239
栽 10240
傘 10241
莱 10242
仮 10243
飾 10244
考 10245
寨 10246
派 10247
留 10248
踊 10249
候 10250
矢 10251
虹 10252
扇 10253
桐 10254
鍋 10255
夏 10256
天 10257
ォ 10258
慣 10259
講 10260
蝶 10261
晃 10262
聖 10263
宴 10264
靴 10265
抹 10266
歴 10267
聘 10268
泄 10269
栗 10270
紅 10271
甄 10272
消 10273
指 10274
願 10275
雀 10276
榜 10277
幌 10278
− 10279
麺 10280
可 10281
糸 10282
寂 10283
稼 10284
則 10285
還 10286
遂 10287
鶏 10288
毅 10289
ぷ 10290
憲 10291
漠 10292
父 10293
龍 10294
南 10295
展 10296
査 10297
萌 10298
蜂 10299
刃 10300
衰 10301
逸 10302
尺 10303
塗 10304
琳 10305
扱 10306
豹 10307
拐 10308
呂 10309
勘 10310
楠 10311
垂 10312
吊 10313
武 10314
自 10315
ٰ 10316
痴 10317
蓄 10318
炉 10319
虐 10320
待 10321
逢 10322
爪 10323
省 10324
址 10325
捷 10326
績 10327
駐 10328
芯 10329
茅 10330
等 10331
響 10332
愁 10333
慈 10334
濯 10335
沼 10336
息 10337
誇 10338
• 10339
柏 10340
忌 10341
舟 10342
ỹ 10343
崖 10344
逗 10345
句 10346
・ 10347
凝 10348
辜 10349
隙 10350
塑 10351
湘 10352
仏 10353
那 10354
填 10355
掃 10356
晒 10357
渉 10358
騰 10359
煙 10360
翠 10361
甭 10362
菅 10363
謎 10364
岂 10365
棚 10366
棄 10367
脅 10368
旺 10369
蓉 10370
志 10371
圏 10372
幽 10373
祈 10374
憶 10375
膜 10376
ỵ 10377
履 10378
癌 10379
才 10380
儀 10381
初 10382
酬 10383
非 10384
第 10385
僚 10386
豫 10387
卜 10388
覧 10389
干 10390
府 10391
挟 10392
彪 10393
三 10394
軒 10395
枯 10396
縁 10397
失 10398
涯 10399
悦 10400
騒 10401
塚 10402
監 10403
丘 10404
挽 10405
鍵 10406
誤 10407
旭 10408
沸 10409
郷 10410
母 10411
慮 10412
友 10413
稲 10414
将 10415
僅 10416
血 10417
碑 10418
堀 10419
償 10420
岐 10421
疆 10422
鑑 10423
炊 10424
果 10425
福 10426
婚 10427
臓 10428
縦 10429
ی 10430
嘘 10431
陰 10432
劣 10433
亭 10434
二 10435
彦 10436
鎌 10437
易 10438
噴 10439
寡 10440
賛 10441
春 10442
抄 10443
晩 10444
肢 10445
埃 10446
涼 10447
碧 10448
稚 10449
曇 10450
釣 10451
巾 10452
貸 10453
独 10454
執 10455
筆 10456
郡 10457
脇 10458
没 10459
寧 10460
椒 10461
渣 10462
刊 10463
膨 10464
諦 10465
亦 10466
次 10467
便 10468
剣 10469
快 10470
涌 10471
鏡 10472
滅 10473
磁 10474
首 10475
栃 10476
筒 10477
貨 10478
喜 10479
較 10480
盲 10481
縫 10482
漬 10483
猿 10484
須 10485
嘱 10486
鶴 10487
偽 10488
網 10489
帆 10490
投 10491
俱 10492
耕 10493
酒 10494
蔽 10495
鎖 10496
揮 10497
黙 10498
剥 10499
恥 10500
吾 10501
殴 10502
早 10503
粥 10504
懐 10505
斑 10506
莎 10507
砲 10508
ヶ 10509
煎 10510
蚂 10511
ァ 10512
伐 10513
涙 10514
酢 10515
锻 10516
坤 10517
漢 10518
皓 10519
嶋 10520
銭 10521
舎 10522
霞 10523
咳 10524
卿 10525
挫 10526
絞 10527
沖 10528
缶 10529
衷 10530
洒 10531
尴 10532
尻 10533
斌 10534
受 10535
愚 10536
枠 10537
尹 10538
十 10539
弘 10540
詞 10541
奮 10542
兜 10543
斉 10544
小 10545
条 10546
卸 10547
妾 10548
棍 10549
ゥ 10550
伎 10551
朴 10552
病 10553
鼎 10554
廊 10555
彰 10556
腔 10557
兵 10558
芦 10559
静 10560
婿 10561
皿 10562
咽 10563
昂 10564
淋 10565
歓 10566
蕾 10567
媛 10568
庸 10569
販 10570
漆 10571
丼 10572
垣 10573
艇 10574
贈 10575
霊 10576
灌 10577
稽 10578
誌 10579
晰 10580
枕 10581
却 10582
孫 10583
玫 10584
喉 10585
預 10586
拝 10587
銅 10588
淑 10589
膝 10590
笠 10591
茹 10592
畳 10593
呵 10594
英 10595
巣 10596
希 10597
麗 10598
慨 10599
宵 10600
粹 10601
敦 10602
ぺ 10603
咨 10604
芋 10605
環 10606
誠 10607
靖 10608
翰 10609
逮 10610
吻 10611
亀 10612
吩 10613
宰 10614
罰 10615
邸 10616
喫 10617
塘 10618
汰 10619
偉 10620
艦 10621
軟 10622
拭 10623
妊 10624
淳 10625
狩 10626
惦 10627
禅 10628
特 10629
寇 10630
璧 10631
貢 10632
柿 10633
駒 10634
煌 10635
暇 10636
況 10637
沃 10638
沫 10639
胳 10640
項 10641
斥 10642
溢 10643
闇 10644
叉 10645
姫 10646
溪 10647
蹴 10648
蝴 10649
酵 10650
釈 10651
韓 10652
獲 10653
椎 10654
磊 10655
芒 10656
奢 10657
畿 10658
綱 10659
徽 10660
澄 10661
艘 10662
陀 10663
桁 10664
濫 10665
提 10666
共 10667
翁 10668
蚊 10669
丞 10670
娟 10671
扉 10672
弦 10673
ẵ 10674
譲 10675
併 10676
廉 10677
潰 10678
帖 10679
+ 10680
衣 10681
杏 10682
藩 10683
へ 10684
篠 10685
弊 10686
我 10687
陥 10688
真 10689
棟 10690
貫 10691
函 10692
腸 10693
阜 10694
٠ 10695
弟 10696
昧 10697
滝 10698
霜 10699
囚 10700
峡 10701
逝 10702
膏 10703
尋 10704
弓 10705
葵 10706
穏 10707
彫 10708
託 10709
裸 10710
斎 10711
偵 10712
窄 10713
嬉 10714
畜 10715
紋 10716
蛛 10717
麟 10718
慶 10719
唇 10720
比 10721
& 10722
軸 10723
— 10724
亜 10725
笑 10726
棺 10727
١ 10728
湧 10729
曝 10730
注 10731
凰 10732
堤 10733
彬 10734
債 10735
嗅 10736
悼 10737
拡 10738
懲 10739
深 10740
蜗 10741
冥 10742
賢 10743
魄 10744
乙 10745
窟 10746
顧 10747
隅 10748
萄 10749
葱 10750
屎 10751
蒜 10752
巷 10753
緯 10754
蟹 10755
揉 10756
幸 10757
鋭 10758
毯 10759
癒 10760
鍛 10761
餌 10762
鞭 10763
霧 10764
詩 10765
宝 10766
疚 10767
茉 10768
灸 10769
瘤 10770
潭 10771
貧 10772
到 10773
老 10774
崛 10775
棠 10776
餅 10777
朽 10778
馨 10779
浄 10780
癖 10781
厘 10782
衙 10783
緒 10784
賄 10785
酔 10786
夷 10787
怠 10788
屡 10789
帳 10790
侮 10791
脈 10792
扁 10793
俵 10794
ぃ 10795
憩 10796
建 10797
眞 10798
肘 10799
梗 10800
係 10801
娠 10802
濱 10803
哨 10804
傍 10805
屯 10806
嵐 10807
紛 10808
匿 10809
叙 10810
塾 10811
橘 10812
今 10813
堅 10814
貝 10815
穂 10816
萩 10817
九 10818
庶 10819
淀 10820
爵 10821
礎 10822
菱 10823
妹 10824
凸 10825
膳 10826
° 10827
撼 10828
祉 10829
粧 10830
腺 10831
雁 10832
后 10833
笛 10834
吟 10835
哉 10836
疑 10837
冊 10838
錦 10839
栓 10840
蒲 10841
鞠 10842
荘 10843
馒 10844
君 10845
謀 10846
琉 10847
頻 10848
颁 10849
٢ 10850
魁 10851
× 10852
壇 10853
豁 10854
鉢 10855
殻 10856
圭 10857
廣 10858
霖 10859
瑜 10860
祐 10861
脊 10862
麒 10863
匈 10864
繋 10865
禄 10866
碁 10867
茜 10868
刹 10869
獄 10870
賠 10871
系 10872
屑 10873
妓 10874
尉 10875
倘 10876
栖 10877
簿 10878
綾 10879
噌 10880
榴 10881
坪 10882
奨 10883
紗 10884
倫 10885
蜘 10886
縄 10887
乞 10888
剛 10889
淇 10890
耶 10891
猾 10892
逞 10893
邱 10894
獣 10895
筛 10896
祠 10897
葫 10898
羅 10899
舆 10900
裳 10901
蝉 10902
剃 10903
輔 10904
鼹 10905
峻 10906
薯 10907
蚕 10908
薦 10909
媚 10910
磯 10911
釜 10912
拌 10913
痘 10914
嚼 10915
掺 10916
溝 10917
綿 10918
蓮 10919
蹄 10920
斧 10921
潤 10922
藻 10923
箸 10924
苔 10925
○ 10926
刈 10927
ぉ 10928
晟 10929
如 10930
疹 10931
瞳 10932
影 10933
枢 10934
粛 10935
苦 10936
侈 10937
写 10938
墜 10939
熏 10940
四 10941
曽 10942
斬 10943
櫻 10944
汝 10945
聡 10946
邊 10947
照 10948
秉 10949
塊 10950
詠 10951
隧 10952
虔 10953
唆 10954
拇 10955
茎 10956
互 10957
嬢 10958
赦 10959
鵬 10960
٪ 10961
祟 10962
蘭 10963
寮 10964
幾 10965
浏 10966
萎 10967
橙 10968
疙 10969
蕉 10970
鴨 10971
辐 10972
顕 10973
蹊 10974
若 10975
錯 10976
砕 10977
雍 10978
軌 10979
凄 10980
汐 10981
祷 10982
片 10983
禾 10984
膚 10985
鎮 10986
礁 10987
笘 10988
苑 10989
県 10990
啓 10991
祀 10992
逍 10993
橡 10994
絆 10995
拙 10996
靳 10997
鷲 10998
精 10999
“ 11000
杖 11001
穀 11002
唾 11003
渕 11004
焚 11005
醤 11006
腫 11007
籠 11008
ฯ 11009
奎 11010
茸 11011
八 11012
捎 11013
肇 11014
叩 11015
凹 11016
寛 11017
渦 11018
瑠 11019
奇 11020
屌 11021
憎 11022
睦 11023
閥 11024
呪 11025
縛 11026
襟 11027
参 11028
厄 11029
噂 11030
粋 11031
嘀 11032
幡 11033
辻 11034
眼 11035
周 11036
冨 11037
匂 11038
沌 11039
嶽 11040
檬 11041
窮 11042
﴿ 11043
冷 11044
斐 11045
桓 11046
濁 11047
裔 11048
國 11049
悍 11050
﴾ 11051
搾 11052
槙 11053
匡 11054
肋 11055
陳 11056
倩 11057
沮 11058
芹 11059
螃 11060
疎 11061
摂 11062
瑛 11063
烹 11064
腑 11065
‫ 11066
惺 11067
祛 11068
糧 11069
藍 11070
靡 11071
騎 11072
拴 11073
羹 11074
芙 11075
齋 11076
堕 11077
芥 11078
錠 11079
侥 11080
潔 11081
珂 11082
怯 11083
竿 11084
吏 11085
庇 11086
舶 11087
醸 11088
骸 11089
支 11090
尽 11091
渭 11092
甫 11093
邉 11094
伽 11095
鐘 11096
ۚ 11097
惚 11098
惰 11099
駿 11100
凛 11101
銘 11102
ۖ 11103
矫 11104
鷹 11105
硫 11106
禽 11107
謙 11108
跋 11109
清 11110
ぅ 11111
謡 11112
他 11113
鉱 11114
晦 11115
焉 11116
蔑 11117
黄 11118
暧 11119
簡 11120
隻 11121
荻 11122
锄 11123
揃 11124
蘇 11125
蓋 11126
似 11127
酌 11128
厮 11129
诅 11130
饲 11131
戎 11132
擁 11133
畔 11134
٩ 11135
五 11136
哮 11137
徊 11138
撰 11139
喚 11140
慷 11141
暢 11142
梢 11143
萱 11144
賊 11145
警 11146
俣 11147
濡 11148
暦 11149
何 11150
忙 11151
篤 11152
铅 11153
柵 11154
胤 11155
荧 11156
薫 11157
崭 11158
笹 11159
鉛 11160
鞍 11161
舘 11162
青 11163
峠 11164
辗 11165
條 11166
墟 11167
粟 11168
蔭 11169
‐ 11170
彝 11171
公 11172
宸 11173
蚓 11174
/ 11175
@ 11176
弔 11177
弧 11178
瀑 11179
邑 11180
銚 11181
朔 11182
鳞 11183
敢 11184
剰 11185
蚪 11186
傑 11187
舵 11188
譜 11189
戮 11190
瑚 11191
嵌 11192
趾 11193
豌 11194
隋 11195
忐 11196
猝 11197
٥ 11198
捍 11199
猟 11200
該 11201
扳 11202
灼 11203
磋 11204
腌 11205
虞 11206
阐 11207
嗣 11208
墳 11209
梶 11210
諭 11211
呉 11212
٣ 11213
ۃ 11214
炙 11215
耸 11216
蛾 11217
訟 11218
韭 11219
橄 11220
琶 11221
磐 11222
臼 11223
貞 11224
髄 11225
â 11226
怪 11227
欄 11228
穗 11229
颯 11230
飢 11231
冶 11232
柠 11233
璋 11234
藉 11235
蜻 11236
螂 11237
喪 11238
侑 11239
祺 11240
镶 11241
坍 11242
攥 11243
釉 11244
噛 11245
塀 11246
峨 11247
柚 11248
牟 11249
盎 11250
綻 11251
訂 11252
賂 11253
韻 11254
٦ 11255
垢 11256
嫦 11257
梓 11258
繕 11259
麓 11260
左 11261
珀 11262
箇 11263
胭 11264
腎 11265
诠 11266
轄 11267
寅 11268
嶺 11269
悴 11270
汀 11271
畠 11272
翡 11273
究 11274
咤 11275
堺 11276
椰 11277
楷 11278
琊 11279
绚 11280
邋 11281
癞 11282
商 11283
微 11284
蝠 11285
٤ 11286
乒 11287
唄 11288
迄 11289
鯉 11290
胴 11291
壕 11292
槻 11293
硝 11294
酝 11295
嵩 11296
杵 11297
蛍 11298
基 11299
懊 11300
梧 11301
稜 11302
鯛 11303
娘 11304
俺 11305
楓 11306
琥 11307
侶 11308
岬 11309
樽 11310
汲 11311
猖 11312
痊 11313
秤 11314
裾 11315
至 11316
嘶 11317
樋 11318
淵 11319
烯 11320
砺 11321
鳳 11322
黯 11323
円 11324
掂 11325
漩 11326
閲 11327
餓 11328
忒 11329
獅 11330
追 11331
勲 11332
卉 11333
绛 11334
褪 11335
鋼 11336
俸 11337
渇 11338
疵 11339
翊 11340
蕃 11341
邹 11342
酎 11343
峙 11344
蒼 11345
頬 11346
鮭 11347
ヅ 11348
抉 11349
樫 11350
渓 11351
濒 11352
瘍 11353
釧 11354
‬ 11355
٨ 11356
匮 11357
卯 11358
憂 11359
绯 11360
醇 11361
荔 11362
遼 11363
隈 11364
頓 11365
鵜 11366
需 11367
庵 11368
窪 11369
絹 11370
蟋 11371
吆 11372
咄 11373
幣 11374
羲 11375
蝗 11376
鹦 11377
孰 11378
椿 11379
虜 11380
皆 11381
嬴 11382
峯 11383
帷 11384
拗 11385
挿 11386
摯 11387
枸 11388
毋 11389
泸 11390
緻 11391
莞 11392
六 11393
七 11394
喋 11395
榊 11396
獭 11397
琛 11398
缀 11399
胧 11400
蜷 11401
股 11402
☆ 11403
ヱ 11404
慑 11405
樵 11406
洱 11407
淞 11408
湊 11409
禹 11410
肮 11411
讹 11412
叫 11413
拍 11414
歳 11415
٧ 11416
漕 11417
琰 11418
芃 11419
赡 11420
钰 11421
锥 11422
顎 11423
凱 11424
嫡 11425
榛 11426
渚 11427
犁 11428
痤 11429
窯 11430
簸 11431
袒 11432
譬 11433
阙 11434
私 11435
巍 11436
廓 11437
扼 11438
擬 11439
桢 11440
檜 11441
烊 11442
睫 11443
砥 11444
碉 11445
褥 11446
詣 11447
諮 11448
邯 11449
钳 11450
彷 11451
戬 11452
搀 11453
箔 11454
锵 11455
背 11456
傀 11457
儡 11458
咆 11459
囱 11460
恃 11461
榎 11462
肴 11463
脯 11464
蟠 11465
閑 11466
ヂ 11467
亥 11468
啬 11469
惋 11470
瘪 11471
瞭 11472
苓 11473
菁 11474
轼 11475
醍 11476
醐 11477
鲟 11478
偃 11479
嘚 11480
壌 11481
娼 11482
屹 11483
栅 11484
缜 11485
蟒 11486
辍 11487
旅 11488
包 11489
研 11490
就 11491
垛 11492
掖 11493
桨 11494
渍 11495
蝈 11496
迦 11497
骼 11498
’ 11499
斟 11500
睬 11501
医 11502
倶 11503
咀 11504
夭 11505
潦 11506
猥 11507
疱 11508
紡 11509
茵 11510
诋 11511
诲 11512
嘆 11513
妬 11514
攘 11515
暁 11516
浚 11517
漾 11518
珞 11519
笆 11520
蜥 11521
诧 11522
谏 11523
铠 11524
馊 11525
儲 11526
姊 11527
帚 11528
籔 11529
膿 11530
菠 11531
蚣 11532
遁 11533
錬 11534
鳩 11535
奚 11536
昀 11537
槟 11538
渲 11539
犒 11540
瘴 11541
秧 11542
肛 11543
蜴 11544
辕 11545
辘 11546
凋 11547
劾 11548
泾 11549
灞 11550
熨 11551
痢 11552
盹 11553
砚 11554
衩 11555
鹭 11556
淆 11557
賓 11558
赂 11559
鯨 11560
噼 11561
夯 11562
徨 11563
曖 11564
汶 11565
蔚 11566
蜈 11567
闵 11568
陨 11569
α 11570
偕 11571
凪 11572
叡 11573
嘣 11574
挞 11575
昙 11576
枷 11577
柊 11578
梵 11579
絢 11580
脓 11581
腱 11582
讷 11583
阑 11584
骇 11585
喀 11586
孺 11587
帧 11588
應 11589
牽 11590
篓 11591
薩 11592
螳 11593
蟑 11594
阂 11595
麹 11596
ぢ 11597
往 11598
喔 11599
夙 11600
娴 11601
忏 11602
捻 11603
摹 11604
沏 11605
瓮 11606
畸 11607
秽 11608
逅 11609
邂 11610
俨 11611
嘈 11612
噱 11613
宕 11614
淄 11615
痞 11616
蚱 11617
袴 11618
谛 11619
铐 11620
霓 11621
團 11622
丙 11623
扈 11624
曳 11625
熠 11626
瓯 11627
痔 11628
皎 11629
碇 11630
稣 11631
紺 11632
羔 11633
胱 11634
詫 11635
亘 11636
孬 11637
怦 11638
戊 11639
暄 11640
沓 11641
獾 11642
珐 11643
赈 11644
钵 11645
铢 11646
鮎 11647
准 11648
匾 11649
嗝 11650
垦 11651
帛 11652
忡 11653
忱 11654
拚 11655
斓 11656
灘 11657
炬 11658
璀 11659
瞰 11660
纣 11661
羨 11662
艶 11663
芍 11664
壺 11665
弛 11666
弼 11667
惬 11668
晌 11669
涟 11670
烽 11671
璨 11672
箋 11673
缤 11674
蕨 11675
薗 11676
兄 11677
零 11678
≪ 11679
△ 11680
冽 11681
弋 11682
怅 11683
恪 11684
惣 11685
暉 11686
桔 11687
涅 11688
稔 11689
諾 11690
钗 11691
陇 11692
雹 11693
鹂 11694
佯 11695
吠 11696
堰 11697
汕 11698
瀧 11699
炽 11700
烬 11701
薏 11702
裘 11703
谙 11704
贻 11705
邝 11706
镰 11707
骛 11708
骡 11709
故 11710
僕 11711
万 11712
厥 11713
呑 11714
哔 11715
噺 11716
宦 11717
巳 11718
悖 11719
懿 11720
戛 11721
抡 11722
槌 11723
漉 11724
瞥 11725
瞿 11726
穹 11727
绫 11728
缇 11729
耘 11730
耙 11731
藝 11732
觐 11733
謗 11734
辄 11735
鱿 11736
亵 11737
勅 11738
悚 11739
憤 11740
掇 11741
歆 11742
浣 11743
渎 11744
溉 11745
瞌 11746
罠 11747
胺 11748
芮 11749
藿 11750
蛰 11751
讥 11752
傣 11753
岌 11754
峪 11755
徇 11756
悸 11757
戍 11758
昵 11759
晖 11760
栞 11761
桧 11762
榕 11763
泷 11764
浒 11765
簪 11766
褶 11767
訃 11768
誹 11769
踵 11770
鞘 11771
颊 11772
搪 11773
柑 11774
榔 11775
沂 11776
炷 11777
稠 11778
腩 11779
蚌 11780
褚 11781
诟 11782
谤 11783
迸 11784
錮 11785
骋 11786
鸵 11787
超 11788
嗤 11789
壑 11790
奘 11791
幢 11792
擀 11793
枭 11794
磷 11795
芪 11796
葆 11797
裟 11798
謹 11799
跆 11800
踞 11801
钾 11802
镳 11803
麝 11804
龊 11805
龌 11806
佃 11807
兀 11808
學 11809
弑 11810
涎 11811
涞 11812
溥 11813
爻 11814
瘁 11815
祯 11816
纫 11817
虱 11818
蛀 11819
袤 11820
裆 11821
诽 11822
鴻 11823
哽 11824
岱 11825
愕 11826
昴 11827
氨 11828
痣 11829
眈 11830
蔼 11831
訣 11832
躇 11833
轧 11834
遡 11835
酣 11836
顷 11837
饽 11838
齊 11839
控 11840
亮 11841
睡 11842
偎 11843
兎 11844
壱 11845
岖 11846
氯 11847
濠 11848
焖 11849
猕 11850
疟 11851
缮 11852
罄 11853
蕎 11854
虻 11855
戯 11856
阿 11857
ۗ 11858
〇 11859
劉 11860
忖 11861
挎 11862
摒 11863
涤 11864
紘 11865
罵 11866
翱 11867
胰 11868
茱 11869
薙 11870
蟾 11871
蠣 11872
诣 11873
轶 11874
闰 11875
韶 11876
飒 11877
馁 11878
鳖 11879
咂 11880
噗 11881
彗 11882
掴 11883
楢 11884
璜 11885
璞 11886
缭 11887
臃 11888
蝦 11889
赝 11890
骜 11891
鸞 11892
倣 11893
呲 11894
坯 11895
捗 11896
汾 11897
皐 11898
磺 11899
萦 11900
谚 11901
邃 11902
酋 11903
隕 11904
剽 11905
哐 11906
慵 11907
捺 11908
掳 11909
栩 11910
椛 11911
槍 11912
滕 11913
炜 11914
焙 11915
狒 11916
砒 11917
糠 11918
袈 11919
跻 11920
錫 11921
锚 11922
未 11923
٬ 11924
侏 11925
唏 11926
圃 11927
娯 11928
帥 11929
帼 11930
擢 11931
樟 11932
氰 11933
泞 11934
渥 11935
笈 11936
縣 11937
绮 11938
荼 11939
莴 11940
迥 11941
酗 11942
酶 11943
鎧 11944
镣 11945
霁 11946
喝 11947
凜 11948
惆 11949
戟 11950
暨 11951
涸 11952
炯 11953
狞 11954
硌 11955
祇 11956
紐 11957
紳 11958
耷 11959
胯 11960
膑 11961
蛟 11962
讃 11963
踱 11964
雛 11965
飓 11966
龈 11967
🍁 11968
來 11969
冴 11970
毀 11971
汴 11972
泯 11973
焱 11974
煩 11975
綺 11976
繭 11977
缥 11978
缰 11979
腆 11980
臀 11981
苣 11982
荨 11983
蛭 11984
踮 11985
鉾 11986
佼 11987
囃 11988
抨 11989
燻 11990
甬 11991
篝 11992
荟 11993
荥 11994
萬 11995
葚 11996
蒿 11997
赊 11998
铡 11999
頸 12000
忘 12001
班 12002
を 12003
釘 12004
冑 12005
咿 12006
嘩 12007
囡 12008
壽 12009
巌 12010
怄 12011
攸 12012
於 12013
梆 12014
榈 12015
毗 12016
竺 12017
粕 12018
缈 12019
羌 12020
茁 12021
荃 12022
蜍 12023
襷 12024
諒 12025
諜 12026
豺 12027
轱 12028
鋳 12029
雉 12030
鲫 12031
黜 12032
停 12033
推 12034
伢 12035
哏 12036
惘 12037
憑 12038
拮 12039
殓 12040
渾 12041
炅 12042
焯 12043
犄 12044
矯 12045
簌 12046
紬 12047
脐 12048
苞 12049
蔫 12050
蚩 12051
蜚 12052
遐 12053
騙 12054
鬓 12055
完 12056
پ 12057
凧 12058
媲 12059
戾 12060
洙 12061
淬 12062
滉 12063
爺 12064
糾 12065
罔 12066
萸 12067
蚤 12068
踌 12069
踝 12070
遷 12071
醺 12072
锢 12073
锹 12074
隍 12075
隷 12076
骊 12077
李 12078
啕 12079
娩 12080
惴 12081
敝 12082
椭 12083
氮 12084
涝 12085
潍 12086
烏 12087
煦 12088
痫 12089
詮 12090
賜 12091
钛 12092
镀 12093
馥 12094
鳍 12095
紹 12096
ヵ 12097
侗 12098
叵 12099
呻 12100
堑 12101
愫 12102
棲 12103
毡 12104
狰 12105
獒 12106
碴 12107
礴 12108
秆 12109
緋 12110
臥 12111
舛 12112
茗 12113
袅 12114
贋 12115
铀 12116
锏 12117
阉 12118
鬱 12119
鸠 12120
鹜 12121
鼾 12122
随 12123
佞 12124
咛 12125
喰 12126
喱 12127
孚 12128
斡 12129
楊 12130
檄 12131
涣 12132
濮 12133
瓒 12134
睽 12135
羿 12136
翳 12137
腼 12138
蚝 12139
跎 12140
蹉 12141
遜 12142
邈 12143
餡 12144
馳 12145
گ 12146
‮ 12147
★ 12148
〔 12149
〕 12150
冢 12151
刽 12152
唁 12153
唰 12154
廻 12155
忤 12156
恻 12157
拈 12158
掣 12159
斛 12160
桝 12161
湍 12162
滟 12163
漳 12164
瀛 12165
玖 12166
瓴 12167
疽 12168
禺 12169
粼 12170
绾 12171
缨 12172
膠 12173
與 12174
藓 12175
藪 12176
讧 12177
谑 12178
谗 12179
谪 12180
赳 12181
轲 12182
铿 12183
镂 12184
阖 12185
飕 12186
騨 12187
麩 12188
企 12189
― 12190
偌 12191
宥 12192
晤 12193
椀 12194
殇 12195
爛 12196
璎 12197
砝 12198
砾 12199
箩 12200
籁 12201
舐 12202
舷 12203
蔻 12204
蹑 12205
阡 12206
∞ 12207
仃 12208
佗 12209
偻 12210
噢 12211
埠 12212
妲 12213
嬛 12214
寰 12215
彌 12216
忻 12217
恣 12218
沣 12219
洸 12220
煸 12221
畝 12222
發 12223
茯 12224
莆 12225
诓 12226
蹂 12227
😍 12228
楚 12229
咫 12230
哙 12231
娑 12232
宍 12233
掸 12234
桀 12235
燮 12236
瑙 12237
砦 12238
祎 12239
箕 12240
箫 12241
篑 12242
繍 12243
腋 12244
苋 12245
蔗 12246
薅 12247
蛐 12248
诩 12249
郸 12250
锭 12251
阄 12252
靭 12253
飴 12254
髅 12255
揖 12256
🏼 12257
朋 12258
啉 12259
宓 12260
怵 12261
椋 12262
槃 12263
樺 12264
淅 12265
熹 12266
犷 12267
矗 12268
罹 12269
舀 12270
舫 12271
菫 12272
觎 12273
貪 12274
躏 12275
鄱 12276
鍼 12277
顆 12278
駕 12279
骥 12280
鰻 12281
鱗 12282
鹫 12283
克 12284
β 12285
丕 12286
亟 12287
傥 12288
啷 12289
喩 12290
庖 12291
戌 12292
扪 12293
橿 12294
汛 12295
潢 12296
爾 12297
窈 12298
糜 12299
脘 12300
膘 12301
莅 12302
蠕 12303
衲 12304
賑 12305
輿 12306
郦 12307
鐵 12308
雫 12309
骷 12310
髻 12311
麋 12312
是 12313
ヲ 12314
哝 12315
嘹 12316
晁 12317
溏 12318
熾 12319
瘠 12320
皈 12321
瞟 12322
罡 12323
膈 12324
菏 12325
蒔 12326
薮 12327
藐 12328
蛳 12329
鄭 12330
醜 12331
镐 12332
嵯 12333
亞 12334
倜 12335
倹 12336
兒 12337
垩 12338
塵 12339
崋 12340
廿 12341
悻 12342
挛 12343
搡 12344
桦 12345
梱 12346
泱 12347
烩 12348
煜 12349
琏 12350
疸 12351
祓 12352
筵 12353
綬 12354
膺 12355
苫 12356
蔦 12357
蛹 12358
衢 12359
謳 12360
跛 12361
蹶 12362
轟 12363
酉 12364
錣 12365
铤 12366
锱 12367
鞄 12368
颦 12369
饉 12370
饗 12371
鰹 12372
鲶 12373
ڤ 12374
ゑ 12375
ゞ 12376
咻 12377
坳 12378
埂 12379
塙 12380
婕 12381
悶 12382
拄 12383
捭 12384
擞 12385
楣 12386
欽 12387
涧 12388
牒 12389
狲 12390
痺 12391
盂 12392
瞠 12393
礒 12394
窕 12395
荀 12396
蜿 12397
袂 12398
跄 12399
锃 12400
颉 12401
鯖 12402
黝 12403
👍 12404
刎 12405
匝 12406
垠 12407
妩 12408
杈 12409
杳 12410
榭 12411
榷 12412
泵 12413
浃 12414
濤 12415
牦 12416
獐 12417
皙 12418
祜 12419
禎 12420
箏 12421
簾 12422
糗 12423
纾 12424
肓 12425
芈 12426
茴 12427
荏 12428
蛔 12429
裱 12430
諫 12431
謁 12432
趙 12433
钠 12434
铖 12435
閃 12436
饴 12437
骰 12438
魇 12439
被 12440
۝ 12441
仄 12442
嗔 12443
嗲 12444
嘤 12445
姘 12446
尕 12447
恸 12448
揄 12449
揆 12450
揶 12451
攫 12452
桅 12453
桟 12454
梏 12455
櫓 12456
洩 12457
滓 12458
濂 12459
烷 12460
牯 12461
珏 12462
瑁 12463
睾 12464
矬 12465
祢 12466
穣 12467
纥 12468
腚 12469
膵 12470
膻 12471
菰 12472
訊 12473
诃 12474
诿 12475
賽 12476
酊 12477
铆 12478
馀 12479
É 12480
伉 12481
侬 12482
傭 12483
卍 12484
呷 12485
啐 12486
啧 12487
嚥 12488
圓 12489
娓 12490
婵 12491
孢 12492
實 12493
嵘 12494
抿 12495
搔 12496
敕 12497
旌 12498
柩 12499
桎 12500
桠 12501
棹 12502
檎 12503
欅 12504
歎 12505
澁 12506
瀕 12507
炀 12508
犸 12509
猢 12510
痉 12511
痍 12512
痿 12513
砧 12514
禰 12515
缄 12516
蓟 12517
蜒 12518
蝼 12519
谀 12520
遴 12521
鏑 12522
钨 12523
镭 12524
鲲 12525
鷺 12526
鸬 12527
鸾 12528
鹑 12529
ٱ 12530
俎 12531
厩 12532
咦 12533
啵 12534
姣 12535
娆 12536
搐 12537
摺 12538
旮 12539
栀 12540
楔 12541
檻 12542
燈 12543
燭 12544
珪 12545
磴 12546
笕 12547
缢 12548
苅 12549
苯 12550
苺 12551
荠 12552
菖 12553
葦 12554
蓑 12555
蛆 12556
蛉 12557
褛 12558
诌 12559
貅 12560
貔 12561
跚 12562
蹒 12563
躊 12564
遽 12565
醛 12566
铎 12567
馴 12568
鮨 12569
鮫 12570
鳝 12571
鸢 12572
鹚 12573
麾 12574
再 12575
此 12576
倖 12577
叟 12578
噻 12579
姝 12580
姪 12581
婀 12582
彿 12583
恿 12584
會 12585
梠 12586
槇 12587
汎 12588
泓 12589
潺 12590
澪 12591
獗 12592
珅 12593
琮 12594
瘙 12595
皑 12596
碓 12597
縞 12598
绉 12599
羯 12600
胄 12601
莠 12602
蔺 12603
蛯 12604
褴 12605
覗 12606
谡 12607
谩 12608
赅 12609
郜 12610
酮 12611
锌 12612
阚 12613
霏 12614
饅 12615
馏 12616
鳃 12617
鶯 12618
鹄 12619
🤓 12620
以 12621
卞 12622
埴 12623
塹 12624
奧 12625
岷 12626
悌 12627
旯 12628
柾 12629
毘 12630
毽 12631
氦 12632
汨 12633
洵 12634
湄 12635
滁 12636
潸 12637
煉 12638
燦 12639
珲 12640
當 12641
盃 12642
筏 12643
糞 12644
聒 12645
胥 12646
荞 12647
螨 12648
蠅 12649
詔 12650
谔 12651
赭 12652
鍮 12653
钴 12654
镁 12655
镆 12656
镍 12657
頚 12658
飚 12659
饬 12660
鬃 12661
麸 12662
龅 12663
龛 12664
 12665
藁 12666
 12667
改 12668
又 12669
Δ 12670
佻 12671
俶 12672
剋 12673
喆 12674
喹 12675
嗫 12676
嘔 12677
嘭 12678
囫 12679
圀 12680
壬 12681
嬌 12682
崂 12683
崗 12684
巽 12685
廠 12686
弭 12687
彙 12688
徕 12689
忪 12690
恹 12691
懋 12692
懑 12693
掟 12694
撥 12695
楕 12696
櫛 12697
涿 12698
淺 12699
滂 12700
瀞 12701
燗 12702
獠 12703
玳 12704
玷 12705
痧 12706
盅 12707
硯 12708
笏 12709
纂 12710
胫 12711
臧 12712
荚 12713
觊 12714
觥 12715
譴 12716
谄 12717
谧 12718
贮 12719
鄢 12720
酯 12721
醚 12722
鍾 12723
铩 12724
靱 12725
颌 12726
颚 12727
颧 12728
骞 12729
鳗 12730
麿 12731
* 12732
 12733
 12734
♂ 12735
僭 12736
儆 12737
啜 12738
嗟 12739
奂 12740
姦 12741
峒 12742
嵜 12743
廟 12744
恫 12745
攪 12746
瑭 12747
痱 12748
癬 12749
睑 12750
糍 12751
紆 12752
絨 12753
續 12754
纭 12755
纰 12756
罷 12757
耦 12758
菟 12759
葭 12760
薔 12761
蟻 12762
诨 12763
賦 12764
郢 12765
鈿 12766
銮 12767
阈 12768
雎 12769
韮 12770
馗 12771
骶 12772
髋 12773
魯 12774
鰺 12775
鵑 12776
鸚 12777
鸨 12778
鸩 12779
鹌 12780
鼬 12781
🤔 12782
辿 12783
播 12784
θ 12785
┐ 12786
✪ 12787
丶 12788
亳 12789
伧 12790
伫 12791
侉 12792
兖 12793
匐 12794
吮 12795
囵 12796
墾 12797
壅 12798
壷 12799
孪 12800
寵 12801
峦 12802
慄 12803
抻 12804
掬 12805
櫃 12806
歙 12807
汞 12808
湮 12809
溧 12810
焗 12811
牝 12812
玑 12813
珩 12814
琲 12815
璟 12816
瓤 12817
癜 12818
盱 12819
竽 12820
箒 12821
箴 12822
粳 12823
聯 12824
芩 12825
莇 12826
葺 12827
蓦 12828
蕙 12829
裨 12830
訶 12831
诰 12832
踉 12833
迩 12834
逵 12835
邺 12836
郴 12837
酩 12838
鋒 12839
錐 12840
閤 12841
隽 12842
霭 12843
靉 12844
鞆 12845
饯 12846
鮪 12847
鰭 12848
ٔ 12849
掻 12850
脩 12851
這 12852
Ó 12853
🌼 12854
۔ 12855
◎ 12856
佶 12857
傳 12858
儋 12859
吽 12860
噤 12861
噶 12862
妯 12863
媪 12864
孀 12865
岫 12866
嵬 12867
扦 12868
掮 12869
杷 12870
枇 12871
柘 12872
栂 12873
梛 12874
棂 12875
樂 12876
欸 12877
殒 12878
殚 12879
汩 12880
泙 12881
湟 12882
滦 12883
滲 12884
烃 12885
煨 12886
猷 12887
瑤 12888
痈 12889
瘡 12890
皋 12891
硒 12892
竈 12893
筍 12894
粝 12895
綜 12896
綴 12897
罂 12898
翫 12899
苒 12900
蜊 12901
襖 12902
詈 12903
讣 12904
讴 12905
谥 12906
蹩 12907
邬 12908
酚 12909
鐔 12910
铄 12911
铬 12912
锒 12913
锲 12914
閖 12915
閻 12916
韋 12917
鬣 12918
鱒 12919
鱧 12920
鲀 12921
鲈 12922
鳕 12923
鹬 12924
黍 12925
 12926
🌹 12927
😃 12928
😎 12929
最 12930
不 12931
> 12932
Ú 12933
İ 12934
٫ 12935
▲ 12936
☺ 12937
仞 12938
儺 12939
匁 12940
啖 12941
喏 12942
喬 12943
嚢 12944
埜 12945
娌 12946
婺 12947
岿 12948
挲 12949
搽 12950
撚 12951
旛 12952
杓 12953
桉 12954
毓 12955
沅 12956
泔 12957
泗 12958
浔 12959
滢 12960
燊 12961
燧 12962
琚 12963
甕 12964
疖 12965
碘 12966
礫 12967
稹 12968
穢 12969
筧 12970
纏 12971
纨 12972
绡 12973
聩 12974
聰 12975
舩 12976
舳 12977
苁 12978
萼 12979
蛎 12980
蜃 12981
蜇 12982
蜢 12983
诳 12984
豢 12985
踽 12986
辇 12987
遒 12988
遙 12989
遨 12990
邁 12991
酰 12992
鑓 12993
钒 12994
髭 12995
魍 12996
鰓 12997
鴎 12998
鴫 12999
鵤 13000
黢 13001
龇 13002
😉 13003
🌷 13004
鋸 13005
鯵 13006
🌺 13007
( 13008
÷ 13009
ٓ 13010
ک 13011
ڭ 13012
۞ 13013
❤ 13014
ヮ 13015
佝 13016
侩 13017
刍 13018
剌 13019
劭 13020
勖 13021
勸 13022
唢 13023
嗳 13024
嘗 13025
囿 13026
垅 13027
姒 13028
孱 13029
屓 13030
崚 13031
嵇 13032
忿 13033
怆 13034
恁 13035
憫 13036
朧 13037
杼 13038
枥 13039
梼 13040
楡 13041
楹 13042
榮 13043
榲 13044
檸 13045
殲 13046
毬 13047
氟 13048
沭 13049
湎 13050
澧 13051
濛 13052
濾 13053
焔 13054
犍 13055
獺 13056
瑳 13057
痂 13058
癣 13059
癸 13060
矾 13061
砀 13062
秭 13063
穎 13064
竪 13065
笄 13066
笥 13067
筠 13068
箪 13069
粂 13070
緞 13071
纈 13072
纐 13073
绔 13074
绻 13075
缱 13076
肱 13077
腧 13078
芎 13079
蓿 13080
蝿 13081
螈 13082
螯 13083
蟲 13084
褓 13085
覃 13086
詛 13087
諄 13088
讫 13089
诙 13090
谒 13091
贔 13092
逑 13093
邕 13094
邙 13095
鄞 13096
鍬 13097
鏖 13098
钎 13099
钜 13100
铂 13101
铉 13102
锰 13103
镉 13104
镌 13105
闳 13106
陝 13107
霎 13108
頌 13109
饕 13110
髡 13111
魉 13112
鱈 13113
鲢 13114
鹕 13115
👋 13116
🤗 13117
Ö 13118
救 13119
鴈 13120
搗 13121
 13122
 13123
Θ 13124
Ω 13125
γ 13126
۱ 13127
□ 13128
♬ 13129
♯ 13130
〆 13131
【 13132
】 13133
ゐ 13134
゙ 13135
ゝ 13136
佇 13137
俾 13138
倏 13139
僑 13140
剱 13141
卅 13142
唑 13143
嚅 13144
嚴 13145
墉 13146
妪 13147
嬬 13148
寤 13149
嶌 13150
巖 13151
幄 13152
徉 13153
徜 13154
怏 13155
怩 13156
惇 13157
憐 13158
憚 13159
挝 13160
捌 13161
撻 13162
枡 13163
栉 13164
椴 13165
楮 13166
槎 13167
櫂 13168
泮 13169
洇 13170
渌 13171
漑 13172
瀉 13173
瀾 13174
炴 13175
狎 13176
獏 13177
獰 13178
瓊 13179
畦 13180
疝 13181
痦 13182
眦 13183
瞼 13184
矍 13185
砭 13186
祗 13187
禊 13188
秸 13189
稗 13190
笸 13191
篁 13192
簀 13193
籐 13194
籾 13195
糀 13196
脍 13197
臾 13198
芨 13199
苷 13200
茏 13201
茼 13202
蓼 13203
蕗 13204
藜 13205
藺 13206
虢 13207
蝋 13208
蠡 13209
誨 13210
諌 13211
謇 13212
證 13213
诘 13214
谆 13215
谟 13216
谲 13217
貰 13218
賤 13219
贄 13220
蹟 13221
輻 13222
邳 13223
醪 13224
鎏 13225
鎹 13226
铰 13227
锷 13228
闱 13229
阆 13230
飫 13231
餮 13232
馐 13233
骅 13234
骝 13235
鬆 13236
鮒 13237
鰯 13238
鳏 13239
鳐 13240
鹈 13241
鹸 13242
黩 13243
龋 13244
 13245
🌵 13246
💐 13247
💕 13248
🙃 13249
🧐 13250
站 13251
坐 13252
把 13253
Í 13254
υ 13255
ۙ 13256
۸ 13257
‍ 13258
∪ 13259
● 13260
佰 13261
僂 13262
儂 13263
匍 13264
厠 13265
唳 13266
唸 13267
嗬 13268
嚯 13269
孑 13270
將 13271
對 13272
屍 13273
岘 13274
崑 13275
帶 13276
幇 13277
廬 13278
忸 13279
恽 13280
悗 13281
慟 13282
戕 13283
拵 13284
撫 13285
撹 13286
擤 13287
旎 13288
旖 13289
桡 13290
椟 13291
楯 13292
榉 13293
樓 13294
歃 13295
毂 13296
氣 13297
氤 13298
氲 13299
洄 13300
溟 13301
漿 13302
潋 13303
濘 13304
瀋 13305
玥 13306
珮 13307
璽 13308
甑 13309
畷 13310
疇 13311
疥 13312
癡 13313
癩 13314
睢 13315
睨 13316
砷 13317
碕 13318
磬 13319
礇 13320
祿 13321
秣 13322
稞 13323
稟 13324
笺 13325
筅 13326
筥 13327
筺 13328
篭 13329
篾 13330
簑 13331
絃 13332
緘 13333
绺 13334
缙 13335
羟 13336
耄 13337
耋 13338
耒 13339
肽 13340
胍 13341
膦 13342
臈 13343
舁 13344
舢 13345
苜 13346
荪 13347
荸 13348
莢 13349
萢 13350
蒡 13351
蕁 13352
蚜 13353
蛸 13354
蝮 13355
蠹 13356
裡 13357
襁 13358
襦 13359
襪 13360
謖 13361
譚 13362
谶 13363
豉 13364
貶 13365
贰 13366
蹼 13367
躙 13368
軋 13369
輦 13370
逓 13371
逡 13372
遑 13373
郧 13374
醮 13375
鉗 13376
鉤 13377
鉦 13378
錆 13379
錢 13380
錺 13381
钣 13382
铣 13383
铱 13384
锉 13385
镊 13386
镛 13387
闊 13388
陲 13389
靂 13390
靄 13391
靛 13392
頒 13393
顛 13394
颀 13395
餞 13396
饌 13397
饒 13398
髷 13399
魑 13400
鰾 13401
鲇 13402
鲳 13403
鴇 13404
鵝 13405
鵯 13406
 13407
👀 13408
😁 13409
😕 13410
😭 13411
😻 13412
🙄 13413
🤪 13414
Ü 13415
必 13416
玩 13417
姐 13418
机 13419
个 13420
什 13421
Ā 13422
鉈 13423
Ä 13424
Α 13425
Ε 13426
λ 13427
μ 13428
φ 13429
ۛ 13430
ۭ 13431
۰ 13432
۲ 13433
۳ 13434
۹ 13435
′ 13436
↑ 13437
☻ 13438
♠ 13439
✌ 13440
✔ 13441
仝 13442
伜 13443
佚 13444
侘 13445
俅 13446
俚 13447
俦 13448
偲 13449
僖 13450
儚 13451
兇 13452
勁 13453
厭 13454
厶 13455
啮 13456
喙 13457
嗚 13458
嘁 13459
嘬 13460
嘯 13461
噙 13462
囹 13463
圄 13464
圜 13465
垓 13466
埒 13467
壟 13468
妁 13469
妣 13470
姹 13471
寶 13472
尭 13473
峋 13474
崃 13475
崙 13476
崧 13477
嶂 13478
嶙 13479
幔 13480
忾 13481
悱 13482
愎 13483
愼 13484
懺 13485
捲 13486
揩 13487
撺 13488
晝 13489
曉 13490
杣 13491
枋 13492
枳 13493
柝 13494
柞 13495
棗 13496
椁 13497
榑 13498
榫 13499
橈 13500
檍 13501
櫨 13502
殯 13503
氙 13504
汜 13505
洹 13506
浬 13507
涔 13508
涜 13509
涪 13510
淖 13511
淦 13512
渫 13513
溘 13514
燿 13515
爰 13516
爲 13517
狍 13518
狢 13519
獨 13520
瑩 13521
甙 13522
瘢 13523
盥 13524
盧 13525
眙 13526
睚 13527
碣 13528
磽 13529
祕 13530
禮 13531
秫 13532
窠 13533
笤 13534
筿 13535
箜 13536
篌 13537
簗 13538
糅 13539
糺 13540
紂 13541
絣 13542
總 13543
繚 13544
缛 13545
缫 13546
羧 13547
羸 13548
翦 13549
耆 13550
聾 13551
聿 13552
腭 13553
腴 13554
臍 13555
臚 13556
臬 13557
舂 13558
艮 13559
芡 13560
苎 13561
苧 13562
苻 13563
茲 13564
莚 13565
莜 13566
菡 13567
萋 13568
萘 13569
萠 13570
蒐 13571
蒺 13572
蓁 13573
蕩 13574
藷 13575
蘆 13576
蘗 13577
蝕 13578
螢 13579
蟥 13580
蟷 13581
蠑 13582
衞 13583
衮 13584
衾 13585
袢 13586
裃 13587
訛 13588
詢 13589
詭 13590
謄 13591
诮 13592
豸 13593
貉 13594
贖 13595
蹕 13596
蹙 13597
轢 13598
辯 13599
迤 13600
迺 13601
邛 13602
郅 13603
醴 13604
鉉 13605
銛 13606
鋲 13607
鎚 13608
鑽 13609
钼 13610
锟 13611
锨 13612
镕 13613
關 13614
闩 13615
靥 13616
鞑 13617
頤 13618
餘 13619
馕 13620
鯤 13621
鯱 13622
鰐 13623
鰤 13624
鲑 13625
鲠 13626
鲷 13627
鳟 13628
鳶 13629
鵠 13630
鹞 13631
鹳 13632
麼 13633
麽 13634
黌 13635
黠 13636
🎛 13637
💡 13638
😌 13639
😘 13640
😧 13641
🙁 13642
🤛 13643
🤜 13644
🤨 13645
🤭 13646
ٕ 13647
叔 13648
姑 13649
曾 13650
肯 13651
挺 13652
嘛 13653
其 13654
而 13655
觑 13656
楂 13657
婧 13658
咩 13659
鹉 13660
驹 13661
芜 13662
篡 13663
匕 13664
颐 13665
粱 13666
昱 13667
孜 13668
佘 13669
驮 13670
蟀 13671
蜕 13672
萃 13673
摞 13674
嗜 13675
啾 13676
咣 13677
蹿 13678
讐 13679
犊 13680
燎 13681
瀚 13682
悯 13683
讪 13684
薰 13685
痹 13686
橇 13687
幂 13688
嗒 13689
迂 13690
糯 13691
簇 13692
竣 13693
砌 13694
榻 13695
嫖 13696
囧 13697
噎 13698
荫 13699
粽 13700
朦 13701
捶 13702
怔 13703
崴 13704
嚇 13705
碱 13706
剐 13707
眩 13708
珺 13709
湛 13710
殡 13711
惮 13712
乓 13713
貂 13714
殆 13715
曙 13716
雏 13717
谴 13718
荤 13719
籽 13720
渤 13721
嫔 13722
莘 13723
痪 13724
滇 13725
囔 13726
胚 13727
篆 13728
洼 13729
坨 13730
吝 13731
眸 13732
憬 13733
婊 13734
饪 13735
膛 13736
瞑 13737
撸 13738
懇 13739
屿 13740
鳅 13741
髦 13742
蝙 13743
玮 13744
壹 13745
遢 13746
遏 13747
諏 13748
笃 13749
杞 13750
擂 13751
喃 13752
瑕 13753
犟 13754
) 13755
缔 13756
曰 13757
褂 13758
舜 13759
臊 13760
簧 13761
疡 13762
沽 13763
寐 13764
鸳 13765
谬 13766
蘸 13767
藕 13768
羁 13769
缅 13770
窿 13771
棣 13772
撅 13773
掷 13774
嗷 13775
吒 13776
纶 13777
碜 13778
灏 13779
殃 13780
恤 13781
跺 13782
憔 13783
鸯 13784
鬟 13785
颓 13786
腮 13787
咏 13788
矜 13789
漪 13790
恬 13791
峭 13792
尧 13793
嚎 13794
馍 13795
皖 13796
褐 13797
橱 13798
羚 13799
箍 13800
煽 13801
渝 13802
柬 13803
隼 13804
蜓 13805
窘 13806
棱 13807
谕 13808
翟 13809
絮 13810
稷 13811
拂 13812
禧 13813
涡 13814
暫 13815
涮 13816
嚓 13817
俪 13818
侨 13819
琵 13820
溅 13821
袄 13822
癫 13823
焊 13824
湃 13825
淌 13826
亢 13827
霆 13828
熔 13829
榄 13830
怼 13831
徙 13832
驭 13833
韬 13834
隘 13835
镯 13836
锈 13837
芷 13838
澎 13839
栾 13840
黔 13841
铝 13842
缪 13843
瘸 13844
酥 13845
缕 13846
岑 13847
噔 13848
陡 13849
锂 13850
粑 13851
烙 13852
忑 13853
匣 13854
碾 13855
鈍 13856
衅 13857
缎 13858
缆 13859
绞 13860
瞩 13861
猶 13862
婪 13863
嗖 13864
伶 13865
饨 13866
镑 13867
迢 13868
茧 13869
芊 13870
纬 13871
榨 13872
饵 13873
蝌 13874
狛 13875
蹋 13876
窥 13877
蚯 13878
筐 13879
畴 13880
氪 13881
阮 13882
绰 13883
笙 13884
焕 13885
抒 13886
卤 13887
庚 13888
吭 13889
馄 13890
绢 13891
甸 13892
呕 13893
贅 13894
痨 13895
浊 13896
臆 13897
紊 13898
憨 13899
乍 13900
驷 13901
槿 13902
诵 13903
瓢 13904
帜 13905
囤 13906
咙 13907
钝 13908
珑 13909
捋 13910
拣 13911
叼 13912
弈 13913
倚 13914
賭 13915
蚀 13916
驿 13917
雳 13918
赘 13919
蕊 13920
玺 13921
潼 13922
洽 13923
嗡 13924
哺 13925
詹 13926
磅 13927
漓 13928
恺 13929
徘 13930
髓 13931
颅 13932
诫 13933
绷 13934
沱 13935
殉 13936
滔 13937
淤 13938
弩 13939
嫣 13940
嚏 13941
珈 13942
鲤 13943
锯 13944
钙 13945
涕 13946
霹 13947
沥 13948
沁 13949
旱 13950
铛 13951
璇 13952
啄 13953
蕴 13954
粤 13955
旷 13956
俐 13957
# 13958
瞻 13959
坷 13960
噪 13961
诛 13962
睐 13963
璐 13964
涓 13965
糙 13966
昕 13967
咎 13968
敖 13969
懦 13970
鹃 13971
靶 13972
熄 13973
溯 13974
拷 13975
娅 13976
钊 13977
澈 13978
眶 13979
牡 13980
蹬 13981
翩 13982
窖 13983
恙 13984
馋 13985
贿 13986
撩 13987
撂 13988
呸 13989
篱 13990
擎 13991
喳 13992
矣 13993
邢 13994
蛊 13995
狈 13996
冗 13997
哧 13998
骁 13999
颂 14000
襄 14001
筱 14002
俑 14003
饷 14004
霾 14005
撬 14006
虏 14007
逾 14008
撵 14009
哆 14010
闽 14011
疮 14012
摁 14013
丐 14014
鞅 14015
砰 14016
榆 14017
痩 14018
寥 14019
钞 14020
苇 14021
缚 14022
筝 14023
甥 14024
瘀 14025
烁 14026
拱 14027
翎 14028
坝 14029
闸 14030
踹 14031
蝎 14032
搓 14033
骏 14034
觅 14035
俯 14036
鸥 14037
赣 14038
翘 14039
碟 14040
沧 14041
晗 14042
屉 14043
啼 14044
跤 14045
炕 14046
噬 14047
酪 14048
梭 14049
敛 14050
惟 14051
庐 14052
矶 14053
晾 14054
臻 14055
韧 14056
呛 14057
檐 14058
氢 14059
嬷 14060
冕 14061
俏 14062
驯 14063
绥 14064
烨 14065
掠 14066
冉 14067
兢 14068
鲨 14069
篷 14070
瞄 14071
檀 14072
呦 14073
刨 14074
躯 14075
盏 14076
遛 14077
煞 14078
哩 14079
钮 14080
姗 14081
闫 14082
邵 14083
萤 14084
涩 14085
兹 14086
袱 14087
漱 14088
茬 14089
滤 14090
喧 14091
鳌 14092
绅 14093
剁 14094
飽 14095
孵 14096
埔 14097
巩 14098
黏 14099
垄 14100
窒 14101
犀 14102
☎ 14103
宛 14104
棘 14105
僻 14106
皂 14107
沐 14108
奠 14109
挚 14110
钧 14111
楞 14112
渺 14113
岚 14114
裴 14115
苟 14116
呱 14117
鄂 14118
讳 14119
辫 14120
跷 14121
烘 14122
垒 14123
懵 14124
怂 14125
匀 14126
陋 14127
绒 14128
瘩 14129
琅 14130
坞 14131
” 14132
黛 14133
窜 14134
诡 14135
淫 14136
嚣 14137
盔 14138
擒 14139
阀 14140
恍 14141
疤 14142
惭 14143
聋 14144
瘟 14145
泻 14146
搂 14147
壤 14148
咔 14149
蓓 14150
冀 14151
狄 14152
巅 14153
懈 14154
瘫 14155
碳 14156
雌 14157
讼 14158
亨 14159
葩 14160
辙 14161
冈 14162
诏 14163
剔 14164
蝇 14165
佬 14166
腥 14167
绎 14168
笋 14169
赃 14170
秃 14171
泌 14172
呜 14173
撇 14174
粪 14175
睹 14176
娲 14177
诬 14178
纺 14179
莽 14180
貿 14181
驸 14182
揽 14183
窦 14184
嗨 14185
倦 14186
眯 14187
赁 14188
琦 14189
凿 14190
啰 14191
唧 14192
渗 14193
戳 14194
惶 14195
灶 14196
墩 14197
鲸 14198
霄 14199
揪 14200
蟆 14201
煲 14202
殷 14203
莺 14204
咧 14205
吱 14206
掰 14207
峥 14208
驼 14209
炳 14210
棕 14211
刁 14212
瑾 14213
叱 14214
躬 14215
眷 14216
崽 14217
倪 14218
鸽 14219
铲 14220
芭 14221
戈 14222
淼 14223
汹 14224
拶 14225
吁 14226
苛 14227
窍 14228
栈 14229
斋 14230
摧 14231
岔 14232
娄 14233
倔 14234
阱 14235
拧 14236
辖 14237
仆 14238
诀 14239
隶 14240
滥 14241
敞 14242
掀 14243
喇 14244
勿 14245
铸 14246
眺 14247
晏 14248
惫 14249
蛤 14250
拢 14251
倭 14252
焰 14253
衔 14254
蔷 14255
谜 14256
捆 14257
俭 14258
荆 14259
咯 14260
: 14261
驳 14262
溺 14263
琼 14264
拎 14265
聂 14266
迭 14267
浆 14268
嘻 14269
捂 14270
酿 14271
啃 14272
骤 14273
歼 14274
谍 14275
劈 14276
廖 14277
腊 14278
讽 14279
茄 14280
孽 14281
舔 14282
哒 14283
槐 14284
哗 14285
蜀 14286
贬 14287
鑫 14288
竭 14289
掐 14290
妍 14291
绽 14292
叭 14293
揣 14294
衫 14295
噩 14296
馅 14297
硕 14298
佟 14299
鄙 14300
蓬 14301
骆 14302
绊 14303
亩 14304
阎 14305
昊 14306
倡 14307
俘 14308
睿 14309
厦 14310
勺 14311
餃 14312
锡 14313
挠 14314
帐 14315
衬 14316
沛 14317
兮 14318
锣 14319
竖 14320
拽 14321
巢 14322
颖 14323
惕 14324
颤 14325
墅 14326
啤 14327
贞 14328
嘎 14329
飙 14330
沦 14331
貯 14332
轴 14333
捅 14334
抠 14335
鹤 14336
瓣 14337
嘿 14338
喻 14339
樊 14340
帘 14341
莓 14342
恕 14343
嗑 14344
啸 14345
靓 14346
轿 14347
谭 14348
桩 14349
筷 14350
揍 14351
坠 14352
蔓 14353
蜡 14354
螺 14355
蔬 14356
龚 14357
咚 14358
钏 14359
郵 14360
恳 14361
琐 14362
奕 14363
槛 14364
嗦 14365
凳 14366
侃 14367
眨 14368
猩 14369
娥 14370
缉 14371
氧 14372
扒 14373
鹊 14374
猬 14375
烛 14376
吼 14377
铮 14378
仨 14379
蘑 14380
叮 14381
潇 14382
谐 14383
皱 14384
葡 14385
狡 14386
歧 14387
雯 14388
瞪 14389
嫉 14390
卦 14391
枣 14392
舱 14393
佣 14394
绸 14395
钦 14396
纤 14397
妒 14398
熙 14399
勋 14400
鲍 14401
厢 14402
僵 14403
喵 14404
浇 14405
瑟 14406
淮 14407
饥 14408
韦 14409
搏 14410
瘾 14411
炖 14412
痰 14413
叽 14414
驰 14415
碌 14416
嫩 14417
袍 14418
鳄 14419
肆 14420
挪 14421
勃 14422
侄 14423
彤 14424
曦 14425
钓 14426
淹 14427
枫 14428
坟 14429
讶 14430
罕 14431
硅 14432
婢 14433
樱 14434
唬 14435
辟 14436
缸 14437
绵 14438
郝 14439
炫 14440
辽 14441
纲 14442
氓 14443
繊 14444
嗽 14445
谣 14446
瑶 14447
奄 14448
儒 14449
蹭 14450
菇 14451
氾 14452
垮 14453
帕 14454
剖 14455
澜 14456
哑 14457
锐 14458
馈 14459
铭 14460
衍 14461
顽 14462
袜 14463
裹 14464
屠 14465
兑 14466
膊 14467
叠 14468
咒 14469
柯 14470
耿 14471
赎 14472
捣 14473
婴 14474
颇 14475
钩 14476
痒 14477
嗓 14478
拯 14479
杠 14480
泼 14481
纱 14482
攒 14483
谊 14484
胀 14485
捏 14486
稻 14487
俞 14488
坎 14489
锤 14490
虾 14491
禀 14492
壶 14493
赫 14494
渊 14495
貼 14496
趴 14497
矮 14498
框 14499
萍 14500
饺 14501
菩 14502
赠 14503
灿 14504
梳 14505
啪 14506
嘲 14507
畏 14508
肪 14509
婉 14510
囊 14511
砖 14512
渔 14513
娇 14514
喘 14515
秩 14516
瑰 14517
搅 14518
剿 14519
仑 14520
斩 14521
哼 14522
韵 14523
捞 14524
巫 14525
躁 14526
蒂 14527
怡 14528
寓 14529
贯 14530
镖 14531
滩 14532
赐 14533
珊 14534
钉 14535
磕 14536
澳 14537
删 14538
姬 14539
莹 14540
攀 14541
宪 14542
醋 14543
蹲 14544
毙 14545
骚 14546
哇 14547
刮 14548
贱 14549
穆 14550
妄 14551
垫 14552
烫 14553
剂 14554
逊 14555
栋 14556
勧 14557
裙 14558
滨 14559
褒 14560
甩 14561
氛 14562
缴 14563
丛 14564
侣 14565
塌 14566
鸦 14567
嚷 14568
腻 14569
蠢 14570
涵 14571
颠 14572
尬 14573
胶 14574
伞 14575
沾 14576
瞅 14577
吨 14578
臂 14579
雾 14580
妞 14581
沪 14582
肿 14583
泛 14584
贩 14585
寞 14586
笼 14587
枉 14588
嘟 14589
蚁 14590
愣 14591
歹 14592
歪 14593
酱 14594
犠 14595
雕 14596
铃 14597
耻 14598
谦 14599
窑 14600
霉 14601
阔 14602
愉 14603
鸿 14604
辅 14605
咸 14606
撕 14607
憧 14608
溃 14609
览 14610
棉 14611
擅 14612
姚 14613
脖 14614
芬 14615
赋 14616
辨 14617
煤 14618
聆 14619
遮 14620
砍 14621
唤 14622
憋 14623
捧 14624
穫 14625
蹈 14626
诱 14627
鸣 14628
窃 14629
绳 14630
哄 14631
婶 14632
弗 14633
玻 14634
杆 14635
绘 14636
瓷 14637
琢 14638
咐 14639
驱 14640
噜 14641
绣 14642
庞 14643
萝 14644
浙 14645
惩 14646
诈 14647
潘 14648
骄 14649
肃 14650
杭 14651
叨 14652
厕 14653
宠 14654
驴 14655
揭 14656
匙 14657
掏 14658
篮 14659
庙 14660
萧 14661
圳 14662
愤 14663
羞 14664
钥 14665
颈 14666
琪 14667
舰 14668
蛙 14669
浓 14670
扛 14671
咕 14672
抚 14673
纽 14674
唠 14675
践 14676
盼 14677
吕 14678
踩 14679
苍 14680
匆 14681
翅 14682
霍 14683
罐 14684
郊 14685
茫 14686
拘 14687
详 14688
蹦 14689
祁 14690
艳 14691
鉴 14692
赴 14693
贡 14694
谨 14695
坛 14696
跪 14697
咪 14698
循 14699
俄 14700
卢 14701
抖 14702
译 14703
龟 14704
鹰 14705
摊 14706
岭 14707
妨 14708
翌 14709
齿 14710
黎 14711
棵 14712
尘 14713
壳 14714
詐 14715
踢 14716
渴 14717
羡 14718
辩 14719
愈 14720
吞 14721
冻 14722
雰 14723
页 14724
胁 14725
袁 14726
鹅 14727
哟 14728
轩 14729
迈 14730
玛 14731
盐 14732
鹏 14733
拨 14734
夹 14735
逛 14736
肾 14737
捐 14738
肤 14739
栏 14740
矿 14741
嘞 14742
狮 14743
饰 14744
缠 14745
捡 14746
昏 14747
饶 14748
遵 14749
恼 14750
污 14751
扑 14752
肠 14753
彭 14754
澡 14755
娱 14756
箭 14757
悬 14758
叹 14759
驻 14760
卧 14761
辉 14762
畅 14763
锋 14764
薪 14765
轰 14766
疏 14767
幺 14768
凑 14769
趋 14770
烤 14771
晕 14772
婷 14773
耽 14774
掩 14775
惧 14776
逻 14777
陌 14778
愧 14779
剪 14780
铜 14781
裤 14782
挤 14783
纹 14784
崔 14785
搁 14786
诞 14787
薛 14788
蔡 14789
丑 14790
購 14791
综 14792
妥 14793
拟 14794
掲 14795
浑 14796
侧 14797
粘 14798
伪 14799
飘 14800
姆 14801
罢 14802
憾 14803
歇 14804
扭 14805
阁 14806
邮 14807
罩 14808
缝 14809
妆 14810
莲 14811
岗 14812
堪 14813
跨 14814
瘦 14815
冤 14816
脉 14817
萨 14818
偿 14819
倾 14820
睁 14821
闷 14822
膀 14823
兽 14824
贪 14825
砸 14826
跃 14827
锦 14828
邻 14829
脆 14830
凯 14831
懒 14832
圾 14833
鸭 14834
笨 14835
迁 14836
册 14837
勾 14838
饼 14839
傲 14840
醉 14841
筹 14842
询 14843
贼 14844
贤 14845
汪 14846
纵 14847
妮 14848
卑 14849
盒 14850
贺 14851
贸 14852
挡 14853
闯 14854
抛 14855
耍 14856
饱 14857
艰 14858
炼 14859
敲 14860
拦 14861
扮 14862
贾 14863
哎 14864
霸 14865
丧 14866
椅 14867
喷 14868
挨 14869
叛 14870
拆 14871
谎 14872
袭 14873
糕 14874
贫 14875
谱 14876
冯 14877
荐 14878
轨 14879
蒋 14880
丫 14881
荡 14882
昆 14883
摔 14884
伦 14885
恰 14886
啡 14887
猎 14888
熬 14889
孕 14890
唉 14891
邓 14892
夺 14893
洁 14894
拔 14895
扶 14896
闺 14897
绕 14898
揺 14899
◆ 14900
矛 14901
祸 14902
惹 14903
呆 14904
钻 14905
糟 14906
忧 14907
缩 14908
纠 14909
陛 14910
淘 14911
钢 14912
佩 14913
喽 14914
仿 14915
瞒 14916
谅 14917
插 14918
夸 14919
赖 14920
狸 14921
诶 14922
趁 14923
扣 14924
咖 14925
悄 14926
匪 14927
卷 14928
仪 14929
窝 14930
绑 14931
厌 14932
辑 14933
匹 14934
咬 14935
泽 14936
涂 14937
赌 14938
盯 14939
悉 14940
抬 14941
侦 14942
呐 14943
赔 14944
挖 14945
扎 14946
铺 14947
烂 14948
扯 14949
凌 14950
宾 14951
扩 14952
牵 14953
灾 14954
乖 14955
仔 14956
诸 14957
乘 14958
驶 14959
碎 14960
脏 14961
娶 14962
魏 14963
扔 14964
躺 14965
柜 14966
储 14967
屁 14968
艾 14969
邀 14970
锁 14971
篇 14972
狠 14973
尸 14974
仓 14975
锅 14976
撑 14977
鲁 14978
彻 14979
狱 14980
饮 14981
踪 14982
骑 14983
档 14984
披 14985
赏 14986
乌 14987
赞 14988
缓 14989
洪 14990
穷 14991
恢 14992
郑 14993
瞎 14994
罚 14995
闪 14996
毁 14997
阅 14998
凤 14999
础 15000
纷 15001
涉 15002
订 15003
递 15004
猴 15005
链 15006
喂 15007
扬 15008
宽 15009
奋 15010
阻 15011
滚 15012
龄 15013
扫 15014
违 15015
迪 15016
乔 15017
凉 15018
扰 15019
桥 15020
圣 15021
歉 15022
岛 15023
闲 15024
拒 15025
趟 15026
疯 15027
娜 15028
陷 15029
润 15030
缘 15031
汇 15032
纯 15033
粮 15034
访 15035
窗 15036
库 15037
剑 15038
摇 15039
诊 15040
废 15041
迟 15042
载 15043
竞 15044
颗 15045
墙 15046
暂 15047
桌 15048
撞 15049
稍 15050
摄 15051
拖 15052
沟 15053
瞧 15054
肚 15055
聪 15056
纳 15057
饿 15058
忽 15059
诺 15060
忆 15061
驾 15062
迹 15063
摸 15064
赢 15065
伟 15066
埋 15067
晨 15068
贷 15069
贴 15070
阴 15071
汤 15072
疲 15073
诗 15074
启 15075
跌 15076
圆 15077
绩 15078
鸟 15079
甜 15080
喊 15081
挣 15082
胖 15083
帅 15084
诚 15085
劝 15086
亏 15087
绿 15088
仇 15089
骂 15090
编 15091
摆 15092
谋 15093
厅 15094
针 15095
尤 15096
聚 15097
猜 15098
渐 15099
损 15100
朵 15101
荣 15102
躲 15103
灭 15104
孤 15105
颜 15106
杰 15107
韩 15108
镜 15109
镇 15110
剩 15111
挥 15112
遗 15113
盖 15114
嫂 15115
阶 15116
遭 15117
闭 15118
辆 15119
鲜 15120
顿 15121
拼 15122
旁 15123
奖 15124
签 15125
庆 15126
撤 15127
苹 15128
债 15129
挂 15130
沉 15131
审 15132
齐 15133
丰 15134
赚 15135
租 15136
隐 15137
媳 15138
阵 15139
腾 15140
尝 15141
吓 15142
兔 15143
币 15144
拥 15145
绪 15146
纸 15147
估 15148
络 15149
烟 15150
默 15151
协 15152
劲 15153
炸 15154
寻 15155
欺 15156
账 15157
劳 15158
凭 15159
搜 15160
呗 15161
傅 15162
汽 15163
蓝 15164
杂 15165
恶 15166
异 15167
县 15168
轮 15169
键 15170
碰 15171
傻 15172
吵 15173
冰 15174
绍 15175
惯 15176
哦 15177
输 15178
舒 15179
搬 15180
谓 15181
词 15182
抢 15183
亚 15184
执 15185
猪 15186
厉 15187
烧 15188
减 15189
丢 15190
软 15191
织 15192
逼 15193
毎 15194
训 15195
丝 15196
归 15197
疗 15198
疼 15199
兰 15200
释 15201
乡 15202
稳 15203
缺 15204
范 15205
胜 15206
笔 15207
陆 15208
败 15209
宁 15210
售 15211
顶 15212
赛 15213
吴 15214
购 15215
净 15216
积 15217
惊 15218
额 15219
翻 15220
弃 15221
弹 15222
赵 15223
漂 15224
讨 15225
盘 15226
课 15227
农 15228
敌 15229
园 15230
码 15231
检 15232
构 15233
讯 15234
评 15235
晓 15236
闻 15237
馆 15238
灵 15239
频 15240
鸡 15241
贝 15242
临 15243
拜 15244
厂 15245
骗 15246
测 15247
录 15248
杨 15249
哈 15250
纪 15251
层 15252
补 15253
维 15254
铁 15255
宫 15256
艺 15257
偷 15258
妇 15259
销 15260
涨 15261
剧 15262
罗 15263
圈 15264
误 15265
卡 15266
蛋 15267
努 15268
闹 15269
练 15270
姨 15271
搞 15272
卫 15273
批 15274
丽 15275
监 15276
孙 15277
辈 15278
毕 15279
枪 15280
虑 15281
举 15282
爹 15283
狗 15284
货 15285
优 15286
围 15287
效 15288
伙 15289
苏 15290
烦 15291
获 15292
累 15293
树 15294
鱼 15295
汉 15296
坚 15297
《 15298
压 15299
某 15300
语 15301
醒 15302
预 15303
尔 15304
职 15305
济 15306
按 15307
环 15308
势 15309
贵 15310
怀 15311
则 15312
钟 15313
银 15314
坏 15315
乎 15316
顺 15317
仅 15318
图 15319
靠 15320
项 15321
划 15322
细 15323
择 15324
适 15325
议 15326
严 15327
梦 15328
际 15329
既 15330
财 15331
竟 15332
击 15333
懂 15334
脑 15335
显 15336
责 15337
云 15338
权 15339
极 15340
穿 15341
响 15342
简 15343
假 15344
验 15345
德 15346
标 15347
级 15348
负 15349
继 15350
须 15351
顾 15352
刘 15353
换 15354
险 15355
抓 15356
广 15357
脸 15358
陈 15359
质 15360
约 15361
习 15362
戏 15363
营 15364
读 15365
护 15366
普 15367
呃 15368
龙 15369
谈 15370
组 15371
众 15372
历 15373
黑 15374
掉 15375
阳 15376
排 15377
值 15378
养 15379
增 15380
规 15381
专 15382
华 15383
绝 15384
统 15385
亿 15386
药 15387
类 15388
游 15389
态 15390
卖 15391
啥 15392
〉 15393
啦 15394
兴 15395
试 15396
户 15397
〈 15398
终 15399
奶 15400
义 15401
岁 15402
热 15403
领 15404
模 15405
满 15406
论 15407
转 15408
创 15409
观 15410
飞 15411
视 15412
术 15413
续 15414
设 15415
复 15416
嗯 15417
聊 15418
费 15419
伤 15420
运 15421
份 15422
赶 15423
团 15424
步 15425
导 15426
轻 15427
拉 15428
跑 15429
[ 15430
] 15431
许 15432
识 15433
愿 15434
红 15435
杀 15436
调 15437
饭 15438
达 15439
况 15440
选 15441
紧 15442
传 15443
价 15444
查 15445
线 15446
乐 15447
联 15448
块 15449
据 15450
ฒ 15451
俩 15452
较 15453
决 15454
备 15455
强 15456
证 15457
远 15458
节 15459
单 15460
连 15461
网 15462
书 15463
确 15464
风 15465
ฎ 15466
错 15467
买 15468
务 15469
且 15470
怕 15471
并 15472
爷 15473
或 15474
诉 15475
离 15476
战 15477
员 15478
张 15479
计 15480
晚 15481
队 15482
๘ 15483
记 15484
够 15485
๗ 15486
各 15487
收 15488
拿 15489
处 15490
报 15491
讲 15492
资 15493
请 15494
帮 15495
门 15496
认 15497
变 15498
亲 15499
马 15500
结 15501
办 15502
总 15503
欢 15504
难 15505
产 15506
每 15507
军 15508
ỡ 15509
谁 15510
爱 15511
刚 15512
带 15513
爸 15514
题 15515
车 15516
气 15517
哥 15518
场 15519
师 15520
几 15521
电 15522
谢 15523
孩 15524
该 15525
无 15526
咱 15527
边 15528
哪 15529
钱 15530
应 15531
头 15532
东 15533
吃 15534
业 15535
找 15536
进 15537
见 15538
关 15539
它 15540
妈 15541
听 15542
已 15543
动 15544
从 15545
您 15546
于 15547
间 15548
问 15549
๕ 15550
两 15551
呀 15552
种 15553
只 15554
觉 15555
长 15556
让 15557
但 15558
她 15559
发 15560
ẫ 15561
做 15562
实 15563
些 15564
话 15565
开 15566
经 15567
别 15568
怎 15569
ằ 15570
很 15571
๑ 15572
吗 15573
吧 15574
跟 15575
๐ 15576
样 15577
儿 15578
给 15579
现 15580
呢 15581
对 15582
过 15583
看 15584
时 15585
还 15586
为 15587
ặ 15588
啊 15589
ắ 15590
说 15591
么 15592
们 15593
ึ 15594
ậ 15595
โ 15596
这 15597
ํ 15598
你 15599
ấ 15600
ใ 15601
‪ 15602
🌻 15603
Š 15604
چ 15605
ۡ 15606
蜆 15607
 15608
$ 15609
; 15610
_ 15611
¥ 15612
® 15613
À 15614
È 15615
Ò 15616
Ņ 15617
Ō 15618
̀ 15619
Λ 15620
Ξ 15621
η 15622
π 15623
ھ 15624
ۜ 15625
ۢ 15626
۩ 15627
۷ 15628
ࣰ 15629
‰ 15630
‹ 15631
› 15632
※ 15633
⁄ 15634
€ 15635
≥ 15636
☝ 15637
☹ 15638
♣ 15639
♦ 15640
⚫ 15641
乩 15642
亙 15643
亰 15644
仟 15645
伥 15646
俟 15647
俥 15648
偈 15649
僊 15650
僣 15651
僮 15652
兪 15653
冼 15654
凇 15655
刿 15656
剜 15657
劔 15658
劵 15659
勐 15660
勰 15661
叢 15662
叺 15663
叻 15664
呋 15665
呤 15666
唔 15667
唖 15668
唪 15669
唻 15670
啭 15671
喒 15672
喟 15673
嘌 15674
嚔 15675
囁 15676
囍 15677
囮 15678
圩 15679
坻 15680
垪 15681
垭 15682
埓 15683
埙 15684
墁 15685
夔 15686
夘 15687
娣 15688
媽 15689
嫘 15690
屐 15691
屮 15692
峽 15693
嵊 15694
嵋 15695
嶮 15696
帔 15697
廚 15698
弐 15699
弖 15700
徂 15701
徠 15702
徭 15703
恆 15704
愠 15705
愴 15706
戗 15707
戞 15708
挈 15709
捯 15710
摎 15711
攣 15712
數 15713
斃 15714
斫 15715
旻 15716
晄 15717
晔 15718
晷 15719
暈 15720
暹 15721
朶 15722
杢 15723
枦 15724
柒 15725
栢 15726
桴 15727
桿 15728
梟 15729
椏 15730
椚 15731
椶 15732
椹 15733
楳 15734
槁 15735
槨 15736
樒 15737
樯 15738
樾 15739
橛 15740
橹 15741
櫚 15742
歿 15743
殂 15744
氅 15745
氩 15746
泠 15747
泫 15748
洟 15749
浐 15750
漣 15751
潅 15752
潞 15753
澱 15754
濑 15755
瀟 15756
炝 15757
焘 15758
煅 15759
煊 15760
煕 15761
煥 15762
煬 15763
熵 15764
燐 15765
燚 15766
爐 15767
玟 15768
瓠 15769
甾 15770
畭 15771
疋 15772
疔 15773
疣 15774
疳 15775
痙 15776
瘻 15777
癔 15778
皀 15779
皌 15780
皺 15781
眇 15782
瞋 15783
砣 15784
硲 15785
硼 15786
磧 15787
禪 15788
秕 15789
秡 15790
稙 15791
稱 15792
穃 15793
穰 15794
窨 15795
窩 15796
竦 15797
筈 15798
筚 15799
筬 15800
箐 15801
篥 15802
篦 15803
篳 15804
簋 15805
籟 15806
籤 15807
糒 15808
紮 15809
絅 15810
絲 15811
絽 15812
綵 15813
綸 15814
緬 15815
縢 15816
縵 15817
縷 15818
縺 15819
繝 15820
繧 15821
绌 15822
绦 15823
绶 15824
缑 15825
罎 15826
罫 15827
羈 15828
胛 15829
腓 15830
膣 15831
膾 15832
臑 15833
艤 15834
艱 15835
艹 15836
苕 15837
茔 15838
荜 15839
莒 15840
萁 15841
蓖 15842
蔀 15843
蕕 15844
蕪 15845
蕷 15846
薀 15847
薊 15848
蘅 15849
蘋 15850
虬 15851
蜉 15852
蝣 15853
蝸 15854
蟇 15855
袷 15856
裢 15857
褄 15858
褊 15859
褡 15860
襞 15861
襴 15862
觞 15863
註 15864
誅 15865
誊 15866
誼 15867
謠 15868
謨 15869
譟 15870
讀 15871
讒 15872
诂 15873
诒 15874
谯 15875
豈 15876
豐 15877
豕 15878
貳 15879
賁 15880
賈 15881
贓 15882
贲 15883
趄 15884
趔 15885
趵 15886
趸 15887
跏 15888
跖 15889
跬 15890
踟 15891
蹇 15892
蹐 15893
蹰 15894
躰 15895
躾 15896
輒 15897
逶 15898
邇 15899
邗 15900
鄲 15901
酘 15902
醗 15903
釋 15904
鈎 15905
鈔 15906
銜 15907
鋏 15908
錘 15909
錾 15910
鍍 15911
鏨 15912
鐙 15913
鐸 15914
鑼 15915
钡 15916
钺 15917
铍 15918
铵 15919
锆 15920
镒 15921
閼 15922
闕 15923
陂 15924
陜 15925
雙 15926
靜 15927
靼 15928
鞣 15929
鞨 15930
韪 15931
頴 15932
頷 15933
顯 15934
颏 15935
颞 15936
颶 15937
餉 15938
馔 15939
駝 15940
駱 15941
駸 15942
骠 15943
髀 15944
髌 15945
髯 15946
鬘 15947
鬚 15948
鬢 15949
鬨 15950
魃 15951
魎 15952
鮑 15953
鮓 15954
鮟 15955
鯰 15956
鰆 15957
鰍 15958
鱠 15959
鱸 15960
鲧 15961
鳜 15962
鳫 15963
鴛 15964
鴦 15965
鴬 15966
鵡 15967
鷽 15968
鸪 15969
鸮 15970
鸱 15971
鹗 15972
鹧 15973
齉 15974
齟 15975
齧 15976
齬 15977
 15978
 15979
 15980
 15981
🌈 15982
🎠 15983
🎡 15984
👆 15985
👈 15986
👌 15987
👷 15988
💃 15989
💘 15990
💙 15991
💛 15992
💨 15993
💪 15994
Ē 15995
禳 15996
腟 15997
ไ 15998
♩ 15999
#0 16000
#1 16001
#2 16002
#3 16003
#4 16004
#5 16005
#6 16006
#7 16007
#8 16008
#9 16009
#10 16010
#11 16011
#12 16012
#13 16013
#14 16014
#15 16015
